{
  "version": "1.0",
  "truncation": null,
  "padding": null,
  "added_tokens": [
    {
      "id": 0,
      "content": "[UNK]",
      "single_word": false,
      "lstrip": false,
      "rstrip": false,
      "normalized": false,
      "special": true
    },
    {
      "id": 1,
      "content": "[CLS]",
      "single_word": false,
      "lstrip": false,
      "rstrip": false,
      "normalized": false,
      "special": true
    },
    {
      "id": 2,
      "content": "[SEP]",
      "single_word": false,
      "lstrip": false,
      "rstrip": false,
      "normalized": false,
      "special": true
    },
    {
      "id": 3,
      "content": "[PAD]",
      "single_word": false,
      "lstrip": false,
      "rstrip": false,
      "normalized": false,
      "special": true
    },
    {
      "id": 4,
      "content": "[MASK]",
      "single_word": false,
      "lstrip": false,
      "rstrip": false,
      "normalized": false,
      "special": true
    }
  ],
  "normalizer": null,
  "pre_tokenizer": {
    "type": "Whitespace"
  },
  "post_processor": {
    "type": "TemplateProcessing",
    "single": [
      {
        "SpecialToken": {
          "id": "[CLS]",
          "type_id": 0
        }
      },
      {
        "Sequence": {
          "id": "A",
          "type_id": 0
        }
      },
      {
        "SpecialToken": {
          "id": "[SEP]",
          "type_id": 0
        }
      }
    ],
    "pair": [
      {
        "SpecialToken": {
          "id": "[CLS]",
          "type_id": 0
        }
      },
      {
        "Sequence": {
          "id": "A",
          "type_id": 0
        }
      },
      {
        "SpecialToken": {
          "id": "[SEP]",
          "type_id": 0
        }
      },
      {
        "Sequence": {
          "id": "B",
          "type_id": 1
        }
      },
      {
        "SpecialToken": {
          "id": "[SEP]",
          "type_id": 1
        }
      }
    ],
    "special_tokens": {
      "[CLS]": {
        "id": "[CLS]",
        "ids": [
          1
        ],
        "tokens": [
          "[CLS]"
        ]
      },
      "[SEP]": {
        "id": "[SEP]",
        "ids": [
          2
        ],
        "tokens": [
          "[SEP]"
        ]
      }
    }
  },
  "decoder": null,
  "model": {
    "type": "BPE",
    "dropout": null,
    "unk_token": "[UNK]",
    "continuing_subword_prefix": null,
    "end_of_word_suffix": null,
    "fuse_unk": false,
    "byte_fallback": false,
    "ignore_merges": false,
    "vocab": {
      "[UNK]": 0,
      "[CLS]": 1,
      "[SEP]": 2,
      "[PAD]": 3,
      "[MASK]": 4,
      "!": 5,
      "\"": 6,
      "#": 7,
      "$": 8,
      "%": 9,
      "&": 10,
      "'": 11,
      "(": 12,
      ")": 13,
      "*": 14,
      "+": 15,
      ",": 16,
      "-": 17,
      ".": 18,
      "/": 19,
      "0": 20,
      "1": 21,
      "2": 22,
      "3": 23,
      "4": 24,
      "5": 25,
      "6": 26,
      "7": 27,
      "8": 28,
      "9": 29,
      ":": 30,
      ";": 31,
      "=": 32,
      ">": 33,
      "?": 34,
      "A": 35,
      "B": 36,
      "C": 37,
      "D": 38,
      "E": 39,
      "F": 40,
      "G": 41,
      "H": 42,
      "I": 43,
      "J": 44,
      "K": 45,
      "L": 46,
      "M": 47,
      "N": 48,
      "O": 49,
      "P": 50,
      "Q": 51,
      "R": 52,
      "S": 53,
      "T": 54,
      "U": 55,
      "V": 56,
      "W": 57,
      "X": 58,
      "Y": 59,
      "Z": 60,
      "[": 61,
      "]": 62,
      "^": 63,
      "a": 64,
      "b": 65,
      "c": 66,
      "d": 67,
      "e": 68,
      "f": 69,
      "g": 70,
      "h": 71,
      "i": 72,
      "j": 73,
      "k": 74,
      "l": 75,
      "m": 76,
      "n": 77,
      "o": 78,
      "p": 79,
      "q": 80,
      "r": 81,
      "s": 82,
      "t": 83,
      "u": 84,
      "v": 85,
      "w": 86,
      "x": 87,
      "y": 88,
      "z": 89,
      "|": 90,
      "£": 91,
      "«": 92,
      "°": 93,
      "³": 94,
      "»": 95,
      "Á": 96,
      "É": 97,
      "Ö": 98,
      "×": 99,
      "Ø": 100,
      "ß": 101,
      "à": 102,
      "á": 103,
      "å": 104,
      "ç": 105,
      "è": 106,
      "é": 107,
      "ê": 108,
      "ë": 109,
      "í": 110,
      "ñ": 111,
      "ó": 112,
      "ö": 113,
      "ø": 114,
      "ú": 115,
      "ü": 116,
      "ā": 117,
      "ī": 118,
      "ō": 119,
      "Ж": 120,
      "М": 121,
      "О": 122,
      "а": 123,
      "б": 124,
      "в": 125,
      "д": 126,
      "е": 127,
      "ж": 128,
      "и": 129,
      "й": 130,
      "к": 131,
      "л": 132,
      "м": 133,
      "н": 134,
      "о": 135,
      "п": 136,
      "р": 137,
      "с": 138,
      "т": 139,
      "і": 140,
      "ғ": 141,
      "أ": 142,
      "ا": 143,
      "ب": 144,
      "ة": 145,
      "ت": 146,
      "ح": 147,
      "د": 148,
      "ر": 149,
      "ز": 150,
      "س": 151,
      "ض": 152,
      "ط": 153,
      "ف": 154,
      "ق": 155,
      "ك": 156,
      "ل": 157,
      "م": 158,
      "ن": 159,
      "و": 160,
      "ي": 161,
      "ی": 162,
      "ḵ": 163,
      "–": 164,
      "—": 165,
      "‘": 166,
      "’": 167,
      "“": 168,
      "”": 169,
      "†": 170,
      "⁄": 171,
      "五": 172,
      "入": 173,
      "再": 174,
      "加": 175,
      "可": 176,
      "国": 177,
      "許": 178,
      "가": 179,
      "경": 180,
      "오": 181,
      "원": 182,
      "he": 183,
      "in": 184,
      "an": 185,
      "the": 186,
      "on": 187,
      "er": 188,
      "re": 189,
      "at": 190,
      "or": 191,
      "ed": 192,
      "al": 193,
      "en": 194,
      "st": 195,
      "ar": 196,
      "and": 197,
      "of": 198,
      "it": 199,
      "as": 200,
      "is": 201,
      "es": 202,
      "ing": 203,
      "ic": 204,
      "ro": 205,
      "ion": 206,
      "to": 207,
      "le": 208,
      "ou": 209,
      "th": 210,
      "am": 211,
      ".[": 212,
      "il": 213,
      "ent": 214,
      "de": 215,
      "ac": 216,
      "for": 217,
      "ation": 218,
      "se": 219,
      "om": 220,
      "ol": 221,
      "ir": 222,
      "be": 223,
      "ly": 224,
      "ur": 225,
      "ig": 226,
      "pro": 227,
      "The": 228,
      "was": 229,
      "ve": 230,
      "ch": 231,
      "con": 232,
      "ow": 233,
      "un": 234,
      "ad": 235,
      "im": 236,
      "te": 237,
      "ct": 238,
      "ter": 239,
      "us": 240,
      "ce": 241,
      "19": 242,
      "ith": 243,
      "ay": 244,
      "by": 245,
      "ess": 246,
      "ag": 247,
      "20": 248,
      "id": 249,
      "with": 250,
      "are": 251,
      "ap": 252,
      "et": 253,
      "ot": 254,
      "wh": 255,
      "ver": 256,
      "ist": 257,
      "el": 258,
      "ut": 259,
      "com": 260,
      "pl": 261,
      "su": 262,
      "In": 263,
      "ab": 264,
      "cess": 265,
      "ain": 266,
      "em": 267,
      "rom": 268,
      "lo": 269,
      "sh": 270,
      "ri": 271,
      "ts": 272,
      "pe": 273,
      "ne": 274,
      "ber": 275,
      "from": 276,
      "di": 277,
      "res": 278,
      "art": 279,
      "ul": 280,
      "so": 281,
      "um": 282,
      "process": 283,
      "oun": 284,
      "ex": 285,
      "his": 286,
      "ci": 287,
      "cl": 288,
      "per": 289,
      "ther": 290,
      "that": 291,
      "tr": 292,
      "po": 293,
      "ard": 294,
      "ate": 295,
      "ill": 296,
      "all": 297,
      "][": 298,
      "mo": 299,
      "ers": 300,
      "ical": 301,
      "og": 302,
      "NN": 303,
      "ia": 304,
      "ub": 305,
      "ak": 306,
      "ment": 307,
      "bo": 308,
      "ors": 309,
      "qu": 310,
      "CNN": 311,
      "ies": 312,
      "ary": 313,
      "ity": 314,
      "ear": 315,
      "form": 316,
      "ame": 317,
      "ich": 318,
      "der": 319,
      "ge": 320,
      "ere": 321,
      "ign": 322,
      "por": 323,
      "du": 324,
      "ip": 325,
      "ated": 326,
      "ian": 327,
      "wor": 328,
      "igh": 329,
      "ra": 330,
      "were": 331,
      "fir": 332,
      "ha": 333,
      "comp": 334,
      "ore": 335,
      "ast": 336,
      "ction": 337,
      "end": 338,
      "own": 339,
      "which": 340,
      "ive": 341,
      "tw": 342,
      "can": 343,
      "op": 344,
      "18": 345,
      "ld": 346,
      "iv": 347,
      "ust": 348,
      "also": 349,
      "if": 350,
      "ew": 351,
      "od": 352,
      "age": 353,
      "processors": 354,
      "ass": 355,
      "gh": 356,
      "her": 357,
      "ine": 358,
      "act": 359,
      "est": 360,
      "ud": 361,
      "their": 362,
      "ish": 363,
      "ong": 364,
      "its": 365,
      "ack": 366,
      "who": 367,
      "work": 368,
      "first": 369,
      "but": 370,
      "ure": 371,
      "not": 372,
      "ry": 373,
      "up": 374,
      "201": 375,
      "He": 376,
      "our": 377,
      "aw": 378,
      "one": 379,
      "man": 380,
      "ence": 381,
      "ant": 382,
      "St": 383,
      "other": 384,
      "cre": 385,
      "out": 386,
      ",[": 387,
      "ous": 388,
      "ll": 389,
      "ations": 390,
      "An": 391,
      "Ch": 392,
      "os": 393,
      "sur": 394,
      "br": 395,
      "ke": 396,
      "land": 397,
      "200": 398,
      "af": 399,
      "had": 400,
      "me": 401,
      "pr": 402,
      "whe": 403,
      "iz": 404,
      "ial": 405,
      "min": 406,
      "ach": 407,
      "board": 408,
      "vis": 409,
      "olog": 410,
      "ty": 411,
      "incl": 412,
      "ang": 413,
      "has": 414,
      "10": 415,
      "au": 416,
      "ire": 417,
      "pre": 418,
      "spe": 419,
      "ational": 420,
      "low": 421,
      "ions": 422,
      "fin": 423,
      "vi": 424,
      "year": 425,
      "ans": 426,
      "co": 427,
      "ep": 428,
      "ome": 429,
      "ound": 430,
      "ble": 431,
      "fer": 432,
      "ser": 433,
      "ted": 434,
      "rit": 435,
      "Ar": 436,
      "ree": 437,
      "ma": 438,
      "sign": 439,
      "ater": 440,
      "Un": 441,
      "av": 442,
      "ased": 443,
      "have": 444,
      "Al": 445,
      "inter": 446,
      "any": 447,
      "sy": 448,
      "mon": 449,
      "ren": 450,
      "199": 451,
      "mber": 452,
      "oc": 453,
      "tain": 454,
      "ved": 455,
      "ens": 456,
      "str": 457,
      "been": 458,
      "used": 459,
      "fore": 460,
      "part": 461,
      "able": 462,
      "gr": 463,
      "kn": 464,
      "li": 465,
      "mer": 466,
      "met": 467,
      "play": 468,
      "ath": 469,
      "cor": 470,
      "gen": 471,
      "als": 472,
      "ice": 473,
      "amp": 474,
      "vers": 475,
      "Sp": 476,
      "two": 477,
      "16": 478,
      "bl": 479,
      "go": 480,
      "sp": 481,
      "It": 482,
      "ced": 483,
      "des": 484,
      "ark": 485,
      "hed": 486,
      "arch": 487,
      "surf": 488,
      "speci": 489,
      "med": 490,
      "tim": 491,
      "ue": 492,
      "ates": 493,
      "port": 494,
      "includ": 495,
      "),": 496,
      "00": 497,
      "Jo": 498,
      "Ro": 499,
      "This": 500,
      "national": 501,
      "ally": 502,
      "ition": 503,
      "ev": 504,
      "ide": 505,
      "no": 506,
      "ance": 507,
      "they": 508,
      "stem": 509,
      "this": 510,
      "ubl": 511,
      "mi": 512,
      "uary": 513,
      "cont": 514,
      "loc": 515,
      "ight": 516,
      "after": 517,
      "col": 518,
      "ited": 519,
      "En": 520,
      "air": 521,
      "ric": 522,
      "pos": 523,
      "ile": 524,
      "int": 525,
      "17": 526,
      "metal": 527,
      "As": 528,
      "fi": 529,
      "ok": 530,
      "ua": 531,
      "new": 532,
      "coun": 533,
      "ever": 534,
      "fe": 535,
      "ft": 536,
      "ph": 537,
      "ory": 538,
      "such": 539,
      "system": 540,
      "known": 541,
      "surfboard": 542,
      "publ": 543,
      "them": 544,
      "ating": 545,
      "ite": 546,
      "lement": 547,
      "ould": 548,
      "cond": 549,
      "und": 550,
      "ell": 551,
      "where": 552,
      "15": 553,
      "De": 554,
      "band": 555,
      "fl": 556,
      "gan": 557,
      "pt": 558,
      "ays": 559,
      "cur": 560,
      "we": 561,
      "ret": 562,
      "velo": 563,
      "11": 564,
      "rou": 565,
      "uring": 566,
      "197": 567,
      "13": 568,
      "nam": 569,
      "use": 570,
      "ics": 571,
      "old": 572,
      "ident": 573,
      "time": 574,
      "bum": 575,
      "dis": 576,
      "ik": 577,
      "rel": 578,
      "shap": 579,
      "exp": 580,
      "stru": 581,
      "ae": 582,
      "ba": 583,
      "ie": 584,
      "there": 585,
      "ings": 586,
      "ough": 587,
      "12": 588,
      "Ham": 589,
      "ran": 590,
      "ton": 591,
      "into": 592,
      "under": 593,
      "club": 594,
      "ically": 595,
      "velop": 596,
      "een": 597,
      "num": 598,
      "pres": 599,
      "198": 600,
      "soci": 601,
      "rough": 602,
      "Col": 603,
      "ail": 604,
      "cent": 605,
      "over": 606,
      "some": 607,
      "album": 608,
      "ames": 609,
      "ild": 610,
      "ace": 611,
      "cted": 612,
      "ake": 613,
      "Jan": 614,
      "Le": 615,
      "Se": 616,
      "she": 617,
      "ten": 618,
      "hel": 619,
      "ari": 620,
      "ollow": 621,
      "bec": 622,
      "test": 623,
      "196": 624,
      "ult": 625,
      "more": 626,
      "Con": 627,
      "ivers": 628,
      "led": 629,
      "sc": 630,
      "off": 631,
      "develop": 632,
      "being": 633,
      "igua": 634,
      "processing": 635,
      "ired": 636,
      "Per": 637,
      "ave": 638,
      "ning": 639,
      "ason": 640,
      "icle": 641,
      "betw": 642,
      "ship": 643,
      "between": 644,
      "Sh": 645,
      "him": 646,
      "rele": 647,
      "ished": 648,
      "ctions": 649,
      "Cor": 650,
      "Lew": 651,
      "Mal": 652,
      "On": 653,
      "bi": 654,
      "bor": 655,
      "les": 656,
      "pass": 657,
      "val": 658,
      "would": 659,
      "death": 660,
      "unt": 661,
      "comm": 662,
      "about": 663,
      "most": 664,
      "formation": 665,
      "Hamble": 666,
      "number": 667,
      "Lewis": 668,
      "Af": 669,
      "Au": 670,
      "Com": 671,
      "bus": 672,
      "cap": 673,
      "follow": 674,
      "gro": 675,
      "high": 676,
      "ood": 677,
      "pol": 678,
      "ures": 679,
      "att": 680,
      "enc": 681,
      "ase": 682,
      "outh": 683,
      "perform": 684,
      "ology": 685,
      "signed": 686,
      "help": 687,
      "Min": 688,
      "only": 689,
      "ern": 690,
      "ale": 691,
      "ict": 692,
      "produ": 693,
      "chn": 694,
      "sul": 695,
      "design": 696,
      "including": 697,
      "bu": 698,
      "jo": 699,
      "sim": 700,
      "then": 701,
      "rese": 702,
      "through": 703,
      "ife": 704,
      "Rober": 705,
      "January": 706,
      ").": 707,
      "You": 708,
      "gl": 709,
      "later": 710,
      "mus": 711,
      "si": 712,
      "inu": 713,
      "ants": 714,
      "reg": 715,
      "ital": 716,
      "ley": 717,
      "contest": 718,
      "owever": 719,
      "ople": 720,
      "when": 721,
      "22": 722,
      "Brit": 723,
      "Is": 724,
      "Ju": 725,
      "New": 726,
      "Re": 727,
      "Sep": 728,
      "Zigua": 729,
      "found": 730,
      "ffer": 731,
      "gin": 732,
      "hn": 733,
      "iam": 734,
      "mem": 735,
      "eral": 736,
      "arri": 737,
      "three": 738,
      "ily": 739,
      "ents": 740,
      "second": 741,
      "article": 742,
      "processor": 743,
      "expand": 744,
      "0s": 745,
      "14": 746,
      "For": 747,
      "Will": 748,
      "bre": 749,
      "ck": 750,
      "cer": 751,
      "mic": 752,
      "par": 753,
      "tri": 754,
      "ince": 755,
      "ann": 756,
      "red": 757,
      "edia": 758,
      "died": 759,
      "tract": 760,
      "Univers": 761,
      "fiel": 762,
      "until": 763,
      "24": 764,
      "Be": 765,
      "Jun": 766,
      "ah": 767,
      "ga": 768,
      "ms": 769,
      "mis": 770,
      "anal": 771,
      "arc": 772,
      "tember": 773,
      "ters": 774,
      "allow": 775,
      "raft": 776,
      "cord": 777,
      "black": 778,
      "John": 779,
      "British": 780,
      "September": 781,
      "William": 782,
      "\",": 783,
      "Sc": 784,
      "fr": 785,
      "hi": 786,
      "lin": 787,
      "mit": 788,
      "ob": 789,
      "son": 790,
      "ual": 791,
      "season": 792,
      "cons": 793,
      "team": 794,
      "ctor": 795,
      "again": 796,
      "people": 797,
      "ext": 798,
      "ived": 799,
      "Spence": 800,
      "species": 801,
      "Roberts": 802,
      "23": 803,
      "during": 804,
      "fo": 805,
      "lar": 806,
      "name": 807,
      "ool": 808,
      "ral": 809,
      "way": 810,
      "ys": 811,
      "information": 812,
      "ick": 813,
      "proper": 814,
      "techn": 815,
      "while": 816,
      "sub": 817,
      "both": 818,
      "company": 819,
      "released": 820,
      "expanding": 821,
      "Robertson": 822,
      "At": 823,
      "Oc": 824,
      "Wik": 825,
      "ff": 826,
      "nor": 827,
      "ude": 828,
      "inv": 829,
      "eration": 830,
      "eng": 831,
      "state": 832,
      "There": 833,
      "los": 834,
      "made": 835,
      "public": 836,
      "Mc": 837,
      "May": 838,
      "Nor": 839,
      "ball": 840,
      "call": 841,
      "fun": 842,
      "fid": 843,
      "ving": 844,
      "vari": 845,
      "rece": 846,
      "requ": 847,
      "stub": 848,
      "tober": 849,
      "before": 850,
      "urn": 851,
      "trans": 852,
      "ipedia": 853,
      "comple": 854,
      "works": 855,
      "series": 856,
      "played": 857,
      "continu": 858,
      "July": 859,
      "October": 860,
      "Wikipedia": 861,
      "Apr": 862,
      "Mar": 863,
      "Pr": 864,
      "do": 865,
      "law": 866,
      "main": 867,
      "put": 868,
      "plement": 869,
      "vid": 870,
      "ward": 871,
      "ank": 872,
      "ered": 873,
      "ative": 874,
      "ise": 875,
      "began": 876,
      "ists": 877,
      "plic": 878,
      "dire": 879,
      "differ": 880,
      "ific": 881,
      "ause": 882,
      "systems": 883,
      "struct": 884,
      "became": 885,
      "June": 886,
      "April": 887,
      ".\"": 888,
      "21": 889,
      "25": 890,
      "Jap": 891,
      "aj": 892,
      "ca": 893,
      "day": 894,
      "dist": 895,
      "ful": 896,
      "games": 897,
      "hal": 898,
      "net": 899,
      "pat": 900,
      "ting": 901,
      "will": 902,
      "hen": 903,
      "dep": 904,
      "igin": 905,
      "193": 906,
      "sup": 907,
      "ular": 908,
      "many": 909,
      "Star": 910,
      "rent": 911,
      "forest": 912,
      "born": 913,
      "following": 914,
      "property": 915,
      "Japan": 916,
      "27": 917,
      "Bo": 918,
      "Cl": 919,
      "No": 920,
      "]:": 921,
      "mat": 922,
      "ven": 923,
      "ves": 924,
      "vill": 925,
      "writ": 926,
      "real": 927,
      "ali": 928,
      "though": 929,
      "sel": 930,
      "They": 931,
      "chan": 932,
      "tem": 933,
      "aph": 934,
      "ution": 935,
      "visa": 936,
      "like": 937,
      "Scot": 938,
      "Eu": 939,
      "Fe": 940,
      "However": 941,
      "Kings": 942,
      "She": 943,
      "ai": 944,
      "based": 945,
      "che": 946,
      "dy": 947,
      "don": 948,
      "fil": 949,
      "four": 950,
      "hist": 951,
      "mill": 952,
      "tic": 953,
      "well": 954,
      "ash": 955,
      "road": 956,
      "than": 957,
      "del": 958,
      "ird": 959,
      "vest": 960,
      "chool": 961,
      "contract": 962,
      "adi": 963,
      "cell": 964,
      "ared": 965,
      "sum": 966,
      "ports": 967,
      "hers": 968,
      "include": 969,
      "University": 970,
      "against": 971,
      "called": 972,
      "village": 973,
      "Gen": 974,
      "His": 975,
      "dra": 976,
      "gu": 977,
      "game": 978,
      "home": 979,
      "my": 980,
      "now": 981,
      "ost": 982,
      "oper": 983,
      "pur": 984,
      "same": 985,
      "uc": 986,
      "ind": 987,
      "ined": 988,
      "resul": 989,
      "stri": 990,
      "start": 991,
      "ities": 992,
      "def": 993,
      "cember": 994,
      "appro": 995,
      "Inter": 996,
      "mining": 997,
      "final": 998,
      "December": 999,
      "present": 1000,
      "music": 1001,
      "large": 1002,
      "half": 1003,
      "Az": 1004,
      "Te": 1005,
      "Vir": 1006,
      "Wor": 1007,
      "West": 1008,
      "ied": 1009,
      "lay": 1010,
      "mid": 1011,
      "wn": 1012,
      "iness": 1013,
      "erg": 1014,
      "ort": 1015,
      "ican": 1016,
      "conne": 1017,
      "implement": 1018,
      "cts": 1019,
      "using": 1020,
      "area": 1021,
      "ement": 1022,
      "shir": 1023,
      "poin": 1024,
      "book": 1025,
      "ended": 1026,
      "ially": 1027,
      "ological": 1028,
      "years": 1029,
      "local": 1030,
      "colle": 1031,
      "Bl": 1032,
      "Can": 1033,
      "Cali": 1034,
      "II": 1035,
      "Or": 1036,
      "Sab": 1037,
      "Tr": 1038,
      "War": 1039,
      "gel": 1040,
      "gust": 1041,
      "mot": 1042,
      "nia": 1043,
      "pon": 1044,
      "sing": 1045,
      "vent": 1046,
      "wood": 1047,
      "xt": 1048,
      "anies": 1049,
      "atic": 1050,
      "organ": 1051,
      "origin": 1052,
      "enn": 1053,
      "rote": 1054,
      "ional": 1055,
      "entry": 1056,
      "fornia": 1057,
      "units": 1058,
      "add": 1059,
      "tern": 1060,
      "195": 1061,
      "appe": 1062,
      "applic": 1063,
      "point": 1064,
      "early": 1065,
      "bruary": 1066,
      "ized": 1067,
      "United": 1068,
      "partic": 1069,
      "return": 1070,
      "August": 1071,
      "group": 1072,
      "received": 1073,
      "different": 1074,
      "aja": 1075,
      "February": 1076,
      "California": 1077,
      "26": 1078,
      "29": 1079,
      "Cam": 1080,
      "DR": 1081,
      "Raja": 1082,
      "Wh": 1083,
      "az": 1084,
      "aid": 1085,
      "cri": 1086,
      "ple": 1087,
      "sion": 1088,
      "wrote": 1089,
      "held": 1090,
      "ins": 1091,
      "ona": 1092,
      "reat": 1093,
      "redu": 1094,
      "along": 1095,
      "stit": 1096,
      "arr": 1097,
      "set": 1098,
      "char": 1099,
      "thern": 1100,
      "ments": 1101,
      "formed": 1102,
      "open": 1103,
      "gram": 1104,
      "corpor": 1105,
      "current": 1106,
      "business": 1107,
      "member": 1108,
      "field": 1109,
      "depend": 1110,
      "million": 1111,
      "30": 1112,
      "Aust": 1113,
      "Amer": 1114,
      "Co": 1115,
      "Coun": 1116,
      "Kil": 1117,
      "March": 1118,
      "One": 1119,
      "Sain": 1120,
      "South": 1121,
      "dom": 1122,
      "ele": 1123,
      "lam": 1124,
      "mark": 1125,
      "mult": 1126,
      "oy": 1127,
      "pri": 1128,
      "park": 1129,
      "tak": 1130,
      "war": 1131,
      "these": 1132,
      "ats": 1133,
      "ature": 1134,
      "ism": 1135,
      "rodu": 1136,
      "leg": 1137,
      "let": 1138,
      "lead": 1139,
      "ilt": 1140,
      "deal": 1141,
      "dete": 1142,
      "acqu": 1143,
      "omet": 1144,
      "becom": 1145,
      "vel": 1146,
      "termin": 1147,
      "common": 1148,
      "Indi": 1149,
      "show": 1150,
      "ulation": 1151,
      "try": 1152,
      "companies": 1153,
      "ize": 1154,
      "view": 1155,
      "serv": 1156,
      "000": 1157,
      "posed": 1158,
      "rett": 1159,
      "useum": 1160,
      "Perry": 1161,
      "Malays": 1162,
      "Starrett": 1163,
      "Euro": 1164,
      "World": 1165,
      "DRC": 1166,
      "\".[": 1167,
      "..": 1168,
      "Ne": 1169,
      "National": 1170,
      "Res": 1171,
      "Sar": 1172,
      "car": 1173,
      "fam": 1174,
      "lim": 1175,
      "list": 1176,
      "long": 1177,
      "life": 1178,
      "mel": 1179,
      "non": 1180,
      "ose": 1181,
      "pow": 1182,
      "raph": 1183,
      "uel": 1184,
      "uci": 1185,
      "invest": 1186,
      "incorpor": 1187,
      "ani": 1188,
      "ons": 1189,
      "rec": 1190,
      "record": 1191,
      "order": 1192,
      "eded": 1193,
      "ederation": 1194,
      "stat": 1195,
      "often": 1196,
      "round": 1197,
      "top": 1198,
      "proble": 1199,
      "cept": 1200,
      "abl": 1201,
      "dio": 1202,
      "resident": 1203,
      "pop": 1204,
      "aster": 1205,
      "create": 1206,
      "Angel": 1207,
      "vide": 1208,
      "served": 1209,
      "reek": 1210,
      "ock": 1211,
      "published": 1212,
      "sociation": 1213,
      "analog": 1214,
      "Austral": 1215,
      "Europe": 1216,
      "Am": 1217,
      "El": 1218,
      "Go": 1219,
      "Ger": 1220,
      "Lak": 1221,
      "Ol": 1222,
      "So": 1223,
      "ces": 1224,
      "craft": 1225,
      "days": 1226,
      "ior": 1227,
      "just": 1228,
      "mil": 1229,
      "rain": 1230,
      "since": 1231,
      "ord": 1232,
      "sty": 1233,
      "still": 1234,
      "stud": 1235,
      "ofess": 1236,
      "itions": 1237,
      "thor": 1238,
      "those": 1239,
      "ility": 1240,
      "dec": 1241,
      "sequ": 1242,
      "ural": 1243,
      "urther": 1244,
      "aya": 1245,
      "ague": 1246,
      "idge": 1247,
      "otball": 1248,
      "plan": 1249,
      "ress": 1250,
      "ograph": 1251,
      "due": 1252,
      "ights": 1253,
      "2014": 1254,
      "2016": 1255,
      "key": 1256,
      "prim": 1257,
      "specif": 1258,
      "included": 1259,
      "rict": 1260,
      "After": 1261,
      "Comp": 1262,
      "tries": 1263,
      "self": 1264,
      "dynam": 1265,
      "draw": 1266,
      "Virgin": 1267,
      "Saints": 1268,
      "Car": 1269,
      "Gu": 1270,
      "Ho": 1271,
      "Man": 1272,
      "Ser": 1273,
      "Ste": 1274,
      "Th": 1275,
      "back": 1276,
      "cro": 1277,
      "did": 1278,
      "ec": 1279,
      "ef": 1280,
      "jor": 1281,
      "ply": 1282,
      "sol": 1283,
      "side": 1284,
      "ually": 1285,
      "yal": 1286,
      "ines": 1287,
      "independ": 1288,
      "ana": 1289,
      "ator": 1290,
      "ators": 1291,
      "ste": 1292,
      "stu": 1293,
      "tour": 1294,
      "ury": 1295,
      "igital": 1296,
      "program": 1297,
      "term": 1298,
      "194": 1299,
      "ager": 1300,
      "ets": 1301,
      "plac": 1302,
      "ribut": 1303,
      "track": 1304,
      "moved": 1305,
      "world": 1306,
      "action": 1307,
      "2006": 1308,
      "Art": 1309,
      "major": 1310,
      "gover": 1311,
      "countries": 1312,
      "Colle": 1313,
      "commun": 1314,
      "polit": 1315,
      "ences": 1316,
      "research": 1317,
      "researc": 1318,
      "allowed": 1319,
      "extens": 1320,
      "International": 1321,
      "applications": 1322,
      "Malaysia": 1323,
      "uciary": 1324,
      "Act": 1325,
      "Fran": 1326,
      "Gover": 1327,
      "bit": 1328,
      "cy": 1329,
      "digital": 1330,
      "east": 1331,
      "few": 1332,
      "fact": 1333,
      "hab": 1334,
      "may": 1335,
      "oir": 1336,
      "run": 1337,
      "tail": 1338,
      "wing": 1339,
      "indi": 1340,
      "indu": 1341,
      "anim": 1342,
      "another": 1343,
      "stand": 1344,
      "ision": 1345,
      "issu": 1346,
      "left": 1347,
      "ouse": 1348,
      "third": 1349,
      "ctive": 1350,
      "ety": 1351,
      "loan": 1352,
      "ogn": 1353,
      "2015": 1354,
      "2017": 1355,
      "award": 1356,
      "bridge": 1357,
      "meat": 1358,
      "interest": 1359,
      "ampion": 1360,
      "goal": 1361,
      "located": 1362,
      "themat": 1363,
      "offic": 1364,
      "developed": 1365,
      "development": 1366,
      "built": 1367,
      "six": 1368,
      "arried": 1369,
      "micro": 1370,
      "North": 1371,
      "fiduciary": 1372,
      "Cambridge": 1373,
      "American": 1374,
      "recogn": 1375,
      "31": 1376,
      "50": 1377,
      "Air": 1378,
      "All": 1379,
      "Clement": 1380,
      "Dist": 1381,
      "Her": 1382,
      "Los": 1383,
      "Mon": 1384,
      "Po": 1385,
      "Ros": 1386,
      "Rice": 1387,
      "equ": 1388,
      "gor": 1389,
      "hold": 1390,
      "mar": 1391,
      "nes": 1392,
      "nment": 1393,
      "song": 1394,
      "ina": 1395,
      "ender": 1396,
      "defin": 1397,
      "aces": 1398,
      "sever": 1399,
      "beha": 1400,
      "prote": 1401,
      "vember": 1402,
      "adv": 1403,
      "image": 1404,
      "ages": 1405,
      "2018": 1406,
      "within": 1407,
      "shmi": 1408,
      "cient": 1409,
      "peri": 1410,
      "tra": 1411,
      "trave": 1412,
      "que": 1413,
      "rail": 1414,
      "188": 1415,
      "iving": 1416,
      "establ": 1417,
      "ously": 1418,
      "And": 1419,
      "minist": 1420,
      "visit": 1421,
      "author": 1422,
      "vior": 1423,
      "month": 1424,
      "rench": 1425,
      "genre": 1426,
      "event": 1427,
      "introdu": 1428,
      "surfboards": 1429,
      "bands": 1430,
      "shaper": 1431,
      "joined": 1432,
      "football": 1433,
      "functions": 1434,
      "complex": 1435,
      "director": 1436,
      "networks": 1437,
      "November": 1438,
      "Scott": 1439,
      "General": 1440,
      "shirt": 1441,
      "Canad": 1442,
      "appear": 1443,
      "charac": 1444,
      "acquired": 1445,
      "become": 1446,
      "power": 1447,
      "Lakshmi": 1448,
      "College": 1449,
      "ampionship": 1450,
      "District": 1451,
      "behavior": 1452,
      "28": 1453,
      "32": 1454,
      "Don": 1455,
      "French": 1456,
      "Gro": 1457,
      "Jame": 1458,
      "Mus": 1459,
      "Nag": 1460,
      "Ph": 1461,
      "Par": 1462,
      "Que": 1463,
      "SA": 1464,
      "TV": 1465,
      "When": 1466,
      "aul": 1467,
      "bot": 1468,
      "cause": 1469,
      "ger": 1470,
      "gar": 1471,
      "ij": 1472,
      "la": 1473,
      "less": 1474,
      "line": 1475,
      "mu": 1476,
      "ron": 1477,
      "ris": 1478,
      "school": 1479,
      "tit": 1480,
      "take": 1481,
      "vir": 1482,
      "win": 1483,
      "wet": 1484,
      "hell": 1485,
      "incre": 1486,
      "ene": 1487,
      "ster": 1488,
      "stown": 1489,
      "stry": 1490,
      "states": 1491,
      "best": 1492,
      "constru": 1493,
      "aren": 1494,
      "ellow": 1495,
      "suc": 1496,
      "lost": 1497,
      "needed": 1498,
      "respon": 1499,
      "oung": 1500,
      "permit": 1501,
      "trad": 1502,
      "compu": 1503,
      "compet": 1504,
      "iven": 1505,
      "upon": 1506,
      "ourt": 1507,
      "State": 1508,
      "Char": 1509,
      "2008": 1510,
      "ization": 1511,
      "vision": 1512,
      "typ": 1513,
      "cover": 1514,
      "Although": 1515,
      "international": 1516,
      "descri": 1517,
      "contro": 1518,
      "Association": 1519,
      "country": 1520,
      "flu": 1521,
      "related": 1522,
      "because": 1523,
      "biograph": 1524,
      "breach": 1525,
      "announ": 1526,
      "technology": 1527,
      ".\"[": 1528,
      "pattern": 1529,
      "forestation": 1530,
      "started": 1531,
      "defender": 1532,
      "family": 1533,
      "population": 1534,
      "style": 1535,
      "Virginia": 1536,
      "researchers": 1537,
      "several": 1538,
      "Jamestown": 1539,
      "39": 1540,
      "Ad": 1541,
      "CA": 1542,
      "City": 1543,
      "Gre": 1544,
      "Ke": 1545,
      "Lon": 1546,
      "Lac": 1547,
      "Ma": 1548,
      "Mor": 1549,
      "Mak": 1550,
      "Pro": 1551,
      "Tur": 1552,
      "aim": 1553,
      "bed": 1554,
      "bar": 1555,
      "bur": 1556,
      "cit": 1557,
      "cil": 1558,
      "each": 1559,
      "hy": 1560,
      "ires": 1561,
      "kill": 1562,
      "men": 1563,
      "said": 1564,
      "water": 1565,
      "xed": 1566,
      "young": 1567,
      "reement": 1568,
      "ata": 1569,
      "ories": 1570,
      "educ": 1571,
      "aries": 1572,
      "offer": 1573,
      "ised": 1574,
      "took": 1575,
      "olved": 1576,
      "conf": 1577,
      "confir": 1578,
      "confl": 1579,
      "confid": 1580,
      "imes": 1581,
      "text": 1582,
      "iding": 1583,
      "areas": 1584,
      "ots": 1585,
      "otic": 1586,
      "place": 1587,
      "short": 1588,
      "peak": 1589,
      "ney": 1590,
      "near": 1591,
      "former": 1592,
      "ipp": 1593,
      "iple": 1594,
      "having": 1595,
      "ending": 1596,
      "189": 1597,
      "premi": 1598,
      "Arch": 1599,
      "signific": 1600,
      "grad": 1601,
      "gener": 1602,
      "archae": 1603,
      "medo": 1604,
      "nationals": 1605,
      "even": 1606,
      "relation": 1607,
      "shaping": 1608,
      "century": 1609,
      "Corona": 1610,
      "Minist": 1611,
      "Island": 1612,
      "Islam": 1613,
      "fielder": 1614,
      "Williams": 1615,
      "obtain": 1616,
      "consid": 1617,
      "engine": 1618,
      "loss": 1619,
      "various": 1620,
      "Marian": 1621,
      "film": 1622,
      "midfielder": 1623,
      "enny": 1624,
      "addition": 1625,
      "terminal": 1626,
      "Australia": 1627,
      "Olmedo": 1628,
      "habit": 1629,
      "travel": 1630,
      "established": 1631,
      "announced": 1632,
      "London": 1633,
      "significant": 1634,
      ":[": 1635,
      "Bro": 1636,
      "Bil": 1637,
      "Chell": 1638,
      "Greek": 1639,
      "Hol": 1640,
      "Kat": 1641,
      "La": 1642,
      "Low": 1643,
      "San": 1644,
      "Ter": 1645,
      "bas": 1646,
      "broad": 1647,
      "care": 1648,
      "further": 1649,
      "hour": 1650,
      "hos": 1651,
      "iver": 1652,
      "ks": 1653,
      "ked": 1654,
      "kenny": 1655,
      "lit": 1656,
      "ner": 1657,
      "pot": 1658,
      "pain": 1659,
      "sid": 1660,
      "south": 1661,
      "somet": 1662,
      "uk": 1663,
      "via": 1664,
      "won": 1665,
      "west": 1666,
      "xim": 1667,
      "zy": 1668,
      "zen": 1669,
      "influ": 1670,
      "ane": 1671,
      "anish": 1672,
      "erba": 1673,
      "rew": 1674,
      "read": 1675,
      "ald": 1676,
      "around": 1677,
      "ica": 1678,
      "role": 1679,
      "lean": 1680,
      "lear": 1681,
      "level": 1682,
      "debut": 1683,
      "ford": 1684,
      "oman": 1685,
      "olution": 1686,
      "promot": 1687,
      "child": 1688,
      "190": 1689,
      "2019": 1690,
      "comb": 1691,
      "aining": 1692,
      "share": 1693,
      "cial": 1694,
      "post": 1695,
      "move": 1696,
      "akes": 1697,
      "worked": 1698,
      "working": 1699,
      "States": 1700,
      "Ana": 1701,
      "2002": 1702,
      "profess": 1703,
      "1993": 1704,
      "spat": 1705,
      "archite": 1706,
      "colon": 1707,
      "Eng": 1708,
      "airport": 1709,
      "rica": 1710,
      "ption": 1711,
      "named": 1712,
      "ought": 1713,
      "League": 1714,
      "Corpor": 1715,
      "build": 1716,
      "glass": 1717,
      "founded": 1718,
      "cert": 1719,
      "certain": 1720,
      "fron": 1721,
      "linear": 1722,
      "function": 1723,
      "vided": 1724,
      "structure": 1725,
      "Club": 1726,
      "change": 1727,
      "history": 1728,
      "cells": 1729,
      "summer": 1730,
      "result": 1731,
      "Azerba": 1732,
      "pointed": 1733,
      "particip": 1734,
      "Kilkenny": 1735,
      "problems": 1736,
      "Angeles": 1737,
      "placed": 1738,
      "Acton": 1739,
      "individ": 1740,
      "industry": 1741,
      "Scottish": 1742,
      "biographical": 1743,
      "confidence": 1744,
      "Chellis": 1745,
      "Katzen": 1746,
      "sometimes": 1747,
      "architect": 1748,
      "Azerbaij": 1749,
      ").[": 1750,
      "45": 1751,
      "Ath": 1752,
      "BC": 1753,
      "Bu": 1754,
      "Bon": 1755,
      "Bar": 1756,
      "Cent": 1757,
      "Cup": 1758,
      "Carc": 1759,
      "Del": 1760,
      "Dem": 1761,
      "Ex": 1762,
      "Fr": 1763,
      "Haw": 1764,
      "Jack": 1765,
      "Ken": 1766,
      "Mart": 1767,
      "Museum": 1768,
      "Sm": 1769,
      "School": 1770,
      "bound": 1771,
      "cas": 1772,
      "clo": 1773,
      "cast": 1774,
      "dut": 1775,
      "five": 1776,
      "fuel": 1777,
      "gent": 1778,
      "got": 1779,
      "hor": 1780,
      "however": 1781,
      "jam": 1782,
      "king": 1783,
      "ls": 1784,
      "mall": 1785,
      "ru": 1786,
      "ram": 1787,
      "sound": 1788,
      "size": 1789,
      "small": 1790,
      "tle": 1791,
      "ues": 1792,
      "ya": 1793,
      "ón": 1794,
      "here": 1795,
      "head": 1796,
      "era": 1797,
      "refer": 1798,
      "star": 1799,
      "stay": 1800,
      "arm": 1801,
      "arily": 1802,
      "asure": 1803,
      "ices": 1804,
      "tomat": 1805,
      "outs": 1806,
      "outhern": 1807,
      "thus": 1808,
      "among": 1809,
      "amba": 1810,
      "decl": 1811,
      "deforestation": 1812,
      "forward": 1813,
      "These": 1814,
      "cha": 1815,
      "condu": 1816,
      "contain": 1817,
      "ado": 1818,
      "ime": 1819,
      "without": 1820,
      "appointed": 1821,
      "emerg": 1822,
      "lob": 1823,
      "bert": 1824,
      "ount": 1825,
      "ountain": 1826,
      "class": 1827,
      "ately": 1828,
      "model": 1829,
      "ored": 1830,
      "owned": 1831,
      "opt": 1832,
      "ified": 1833,
      "2012": 1834,
      "2013": 1835,
      "awak": 1836,
      "Championship": 1837,
      "aching": 1838,
      "boards": 1839,
      "augh": 1840,
      "previ": 1841,
      "find": 1842,
      "mathemat": 1843,
      "syn": 1844,
      "general": 1845,
      "Spanish": 1846,
      "special": 1847,
      "Engl": 1848,
      "aircraft": 1849,
      "shapers": 1850,
      "ief": 1851,
      "passports": 1852,
      "bush": 1853,
      "production": 1854,
      "consist": 1855,
      "histor": 1856,
      "purch": 1857,
      "points": 1858,
      "Sabine": 1859,
      "single": 1860,
      "returned": 1861,
      "arrang": 1862,
      "currently": 1863,
      "County": 1864,
      "multiple": 1865,
      "taken": 1866,
      "detection": 1867,
      "Sarawak": 1868,
      "melod": 1869,
      "status": 1870,
      "video": 1871,
      "milit": 1872,
      "sequent": 1873,
      "ayaqu": 1874,
      "Guayaqu": 1875,
      "extension": 1876,
      "Ross": 1877,
      "period": 1878,
      "months": 1879,
      "character": 1880,
      "Phil": 1881,
      "success": 1882,
      "computer": 1883,
      "potent": 1884,
      "England": 1885,
      "Corporation": 1886,
      "Katzenjam": 1887,
      "Carcraft": 1888,
      "English": 1889,
      "Katzenjammer": 1890,
      "36": 1891,
      "37": 1892,
      "80": 1893,
      "Ag": 1894,
      "Ber": 1895,
      "Bor": 1896,
      "Bus": 1897,
      "Dr": 1898,
      "Dis": 1899,
      "Div": 1900,
      "Dep": 1901,
      "ES": 1902,
      "Federation": 1903,
      "Ge": 1904,
      "Jes": 1905,
      "Me": 1906,
      "Net": 1907,
      "Other": 1908,
      "Pre": 1909,
      "Paul": 1910,
      "US": 1911,
      "Vis": 1912,
      "ather": 1913,
      "cou": 1914,
      "cher": 1915,
      "ek": 1916,
      "eper": 1917,
      "eight": 1918,
      "element": 1919,
      "fle": 1920,
      "given": 1921,
      "host": 1922,
      "ier": 1923,
      "je": 1924,
      "jur": 1925,
      "ker": 1926,
      "must": 1927,
      "make": 1928,
      "married": 1929,
      "nal": 1930,
      "ode": 1931,
      "ration": 1932,
      "right": 1933,
      "ss": 1934,
      "sen": 1935,
      "sent": 1936,
      "sch": 1937,
      "ug": 1938,
      "wife": 1939,
      "ye": 1940,
      "inte": 1941,
      "inary": 1942,
      "input": 1943,
      "remed": 1944,
      "represent": 1945,
      "atform": 1946,
      "orado": 1947,
      "aland": 1948,
      "ales": 1949,
      "algor": 1950,
      "ened": 1951,
      "stated": 1952,
      "itor": 1953,
      "associ": 1954,
      "ician": 1955,
      "leav": 1956,
      "Then": 1957,
      "construct": 1958,
      "union": 1959,
      "ador": 1960,
      "uss": 1961,
      "aged": 1962,
      "agreement": 1963,
      "2020": 1964,
      "2022": 1965,
      "aps": 1966,
      "apply": 1967,
      "utions": 1968,
      "platform": 1969,
      "abor": 1970,
      "dies": 1971,
      "umba": 1972,
      "exc": 1973,
      "except": 1974,
      "claim": 1975,
      "trust": 1976,
      "poem": 1977,
      "gest": 1978,
      "ported": 1979,
      "ives": 1980,
      "Another": 1981,
      "Choir": 1982,
      "keep": 1983,
      "aff": 1984,
      "mean": 1985,
      "means": 1986,
      "mechan": 1987,
      "measure": 1988,
      "ologist": 1989,
      "type": 1990,
      "100": 1991,
      "speed": 1992,
      "coast": 1993,
      "Also": 1994,
      "1991": 1995,
      "space": 1996,
      "Royal": 1997,
      "contribut": 1998,
      "feature": 1999,
      "conditions": 2000,
      "curity": 2001,
      "1972": 2002,
      "Colorado": 2003,
      "passport": 2004,
      "attle": 2005,
      "performed": 2006,
      "performance": 2007,
      "designed": 2008,
      "musical": 2009,
      "parts": 2010,
      "mission": 2011,
      "cording": 2012,
      "teams": 2013,
      "north": 2014,
      "require": 2015,
      "required": 2016,
      "transl": 2017,
      "continuous": 2018,
      "ification": 2019,
      "written": 2020,
      "layer": 2021,
      "Sabah": 2022,
      "members": 2023,
      "German": 2024,
      "primarily": 2025,
      "Company": 2026,
      "independent": 2027,
      "programm": 2028,
      "communic": 2029,
      "Group": 2030,
      "Queen": 2031,
      "gradu": 2032,
      "relationship": 2033,
      "Azerbaijan": 2034,
      "Delhi": 2035,
      "Hawai": 2036,
      "algorith": 2037,
      ",\"": 2038,
      "34": 2039,
      "40": 2040,
      "57": 2041,
      "60": 2042,
      "Ash": 2043,
      "Cha": 2044,
      "During": 2045,
      "From": 2046,
      "Gl": 2047,
      "Game": 2048,
      "Hen": 2049,
      "Im": 2050,
      "King": 2051,
      "Li": 2052,
      "Lank": 2053,
      "MA": 2054,
      "Mine": 2055,
      "Pang": 2056,
      "Park": 2057,
      "SR": 2058,
      "Sw": 2059,
      "Sy": 2060,
      "Sri": 2061,
      "Tw": 2062,
      "Uz": 2063,
      "Yang": 2064,
      "bs": 2065,
      "ban": 2066,
      "bro": 2067,
      "bass": 2068,
      "base": 2069,
      "came": 2070,
      "ds": 2071,
      "dou": 2072,
      "dri": 2073,
      "fut": 2074,
      "federation": 2075,
      "hand": 2076,
      "house": 2077,
      "ix": 2078,
      "ient": 2079,
      "iqu": 2080,
      "ious": 2081,
      "ko": 2082,
      "light": 2083,
      "mine": 2084,
      "museum": 2085,
      "ps": 2086,
      "pick": 2087,
      "rist": 2088,
      "tre": 2089,
      "ying": 2090,
      "hes": 2091,
      "ality": 2092,
      "alian": 2093,
      "ston": 2094,
      "ico": 2095,
      "icles": 2096,
      "toge": 2097,
      "ama": 2098,
      "ament": 2099,
      "ilar": 2100,
      "access": 2101,
      "chief": 2102,
      "administ": 2103,
      "teen": 2104,
      "teca": 2105,
      "uses": 2106,
      "ided": 2107,
      "verage": 2108,
      "istics": 2109,
      "plom": 2110,
      "emp": 2111,
      "peci": 2112,
      "neural": 2113,
      "diplom": 2114,
      "expl": 2115,
      "clud": 2116,
      "comput": 2117,
      "ivity": 2118,
      "noted": 2119,
      "2010": 2120,
      "anted": 2121,
      "2000": 2122,
      "2004": 2123,
      "visas": 2124,
      "ologically": 2125,
      "epis": 2126,
      "1992": 2127,
      "playing": 2128,
      "players": 2129,
      "ampton": 2130,
      "ampires": 2131,
      "Jose": 2132,
      "note": 2133,
      "every": 2134,
      "feat": 2135,
      "nament": 2136,
      "understand": 2137,
      "1963": 2138,
      "Constit": 2139,
      "Shamba": 2140,
      "Cork": 2141,
      "biological": 2142,
      "valid": 2143,
      "Africa": 2144,
      "followed": 2145,
      "highway": 2146,
      "ency": 2147,
      "produced": 2148,
      "sible": 2149,
      "Beach": 2150,
      "frame": 2151,
      "ysis": 2152,
      "does": 2153,
      "distin": 2154,
      "fully": 2155,
      "adio": 2156,
      "largest": 2157,
      "Azteca": 2158,
      "Western": 2159,
      "implemented": 2160,
      "books": 2161,
      "Black": 2162,
      "particular": 2163,
      "reduced": 2164,
      "domain": 2165,
      "Indian": 2166,
      "service": 2167,
      "Resear": 2168,
      "investig": 2169,
      "specific": 2170,
      "specifically": 2171,
      "tournament": 2172,
      "government": 2173,
      "issued": 2174,
      "holders": 2175,
      "viron": 2176,
      "Charles": 2177,
      "confirmed": 2178,
      "conflict": 2179,
      "Archae": 2180,
      "engineer": 2181,
      "Lowe": 2182,
      "front": 2183,
      "Bonde": 2184,
      "Smith": 2185,
      "tomata": 2186,
      "outside": 2187,
      "Guayaquil": 2188,
      "juris": 2189,
      "Henry": 2190,
      "future": 2191,
      "together": 2192,
      "33": 2193,
      "42": 2194,
      "62": 2195,
      "90": 2196,
      "Bel": 2197,
      "BBC": 2198,
      "Cap": 2199,
      "Cong": 2200,
      "Des": 2201,
      "East": 2202,
      "Fin": 2203,
      "Gard": 2204,
      "Har": 2205,
      "Hale": 2206,
      "IC": 2207,
      "Ira": 2208,
      "Kore": 2209,
      "Mac": 2210,
      "Many": 2211,
      "Over": 2212,
      "PG": 2213,
      "Pol": 2214,
      "President": 2215,
      "Rep": 2216,
      "River": 2217,
      "Sur": 2218,
      "Sim": 2219,
      "Some": 2220,
      "Tam": 2221,
      "UK": 2222,
      "Uk": 2223,
      "Ur": 2224,
      "Val": 2225,
      "Ze": 2226,
      "cu": 2227,
      "city": 2228,
      "could": 2229,
      "clos": 2230,
      "court": 2231,
      "date": 2232,
      "data": 2233,
      "econ": 2234,
      "far": 2235,
      "flow": 2236,
      "gress": 2237,
      "ggest": 2238,
      "ho": 2239,
      "io": 2240,
      "ius": 2241,
      "jun": 2242,
      "ling": 2243,
      "late": 2244,
      "last": 2245,
      "live": 2246,
      "mass": 2247,
      "mater": 2248,
      "mountain": 2249,
      "ove": 2250,
      "oke": 2251,
      "pital": 2252,
      "rang": 2253,
      "sk": 2254,
      "squ": 2255,
      "sour": 2256,
      "sold": 2257,
      "tar": 2258,
      "ute": 2259,
      "vil": 2260,
      "vol": 2261,
      "ways": 2262,
      "wild": 2263,
      "wave": 2264,
      "yan": 2265,
      "iny": 2266,
      "insp": 2267,
      "anist": 2268,
      "anced": 2269,
      "once": 2270,
      "ondu": 2271,
      "ership": 2272,
      "review": 2273,
      "attem": 2274,
      "org": 2275,
      "ork": 2276,
      "environ": 2277,
      "arian": 2278,
      "itu": 2279,
      "iss": 2280,
      "ison": 2281,
      "island": 2282,
      "rock": 2283,
      "town": 2284,
      "ilo": 2285,
      "demic": 2286,
      "fort": 2287,
      "seen": 2288,
      "section": 2289,
      "sell": 2290,
      "omic": 2291,
      "olo": 2292,
      "irst": 2293,
      "bel": 2294,
      "begin": 2295,
      "provided": 2296,
      "tele": 2297,
      "appre": 2298,
      "what": 2299,
      "ples": 2300,
      "plant": 2301,
      "plants": 2302,
      "plied": 2303,
      "suggest": 2304,
      "ability": 2305,
      "ained": 2306,
      "empl": 2307,
      "log": 2308,
      "shown": 2309,
      "shared": 2310,
      "exem": 2311,
      "ards": 2312,
      "mole": 2313,
      "mode": 2314,
      "quar": 2315,
      "ians": 2316,
      "firm": 2317,
      "ends": 2318,
      "away": 2319,
      "cret": 2320,
      "crete": 2321,
      "created": 2322,
      "creating": 2323,
      "Christ": 2324,
      "izing": 2325,
      "cost": 2326,
      "interconne": 2327,
      "1995": 2328,
      "ocr": 2329,
      "lie": 2330,
      "generation": 2331,
      "ample": 2332,
      "blank": 2333,
      "good": 2334,
      "includes": 2335,
      "events": 2336,
      "nov": 2337,
      "fixed": 2338,
      "feed": 2339,
      "phys": 2340,
      "whereas": 2341,
      "1976": 2342,
      "president": 2343,
      "Lee": 2344,
      "valley": 2345,
      "capac": 2346,
      "poly": 2347,
      "polic": 2348,
      "simul": 2349,
      "similar": 2350,
      "Reg": 2351,
      "Forum": 2352,
      "break": 2353,
      "Universal": 2354,
      "miss": 2355,
      "subsequent": 2356,
      "ffic": 2357,
      "complete": 2358,
      "Both": 2359,
      "writer": 2360,
      "templ": 2361,
      "approved": 2362,
      "implementation": 2363,
      "shirts": 2364,
      "original": 2365,
      "groups": 2366,
      "opened": 2367,
      "elect": 2368,
      "legal": 2369,
      "India": 2370,
      "...": 2371,
      "limited": 2372,
      "European": 2373,
      "Soci": 2374,
      "rainforest": 2375,
      "dynamical": 2376,
      "Series": 2377,
      "stead": 2378,
      "Frank": 2379,
      "Governor": 2380,
      "animals": 2381,
      "official": 2382,
      "recognition": 2383,
      "songs": 2384,
      "Canadian": 2385,
      "title": 2386,
      "construction": 2387,
      "described": 2388,
      "patterns": 2389,
      "burg": 2390,
      "premiered": 2391,
      "Ministry": 2392,
      "Marianne": 2393,
      "Bilba": 2394,
      "children": 2395,
      "spatially": 2396,
      "architecture": 2397,
      "Democr": 2398,
      "Martin": 2399,
      "close": 2400,
      "chaotic": 2401,
      "military": 2402,
      "elements": 2403,
      "excav": 2404,
      "Hawaiian": 2405,
      "Lanka": 2406,
      "Haley": 2407,
      "Iraq": 2408,
      "Republ": 2409,
      "Ukrain": 2410,
      "Zealand": 2411,
      "material": 2412,
      "38": 2413,
      "68": 2414,
      "75": 2415,
      "Ab": 2416,
      "Ac": 2417,
      "BP": 2418,
      "Bi": 2419,
      "By": 2420,
      "Bur": 2421,
      "Bay": 2422,
      "But": 2423,
      "CD": 2424,
      "CE": 2425,
      "Cro": 2426,
      "Cur": 2427,
      "Cath": 2428,
      "Cell": 2429,
      "Creek": 2430,
      "Du": 2431,
      "Dur": 2432,
      "Due": 2433,
      "First": 2434,
      "Gr": 2435,
      "Games": 2436,
      "Hob": 2437,
      "Ir": 2438,
      "Ire": 2439,
      "Jou": 2440,
      "Jos": 2441,
      "Kim": 2442,
      "Log": 2443,
      "Law": 2444,
      "Later": 2445,
      "Mu": 2446,
      "Mil": 2447,
      "Mich": 2448,
      "NA": 2449,
      "Not": 2450,
      "Ot": 2451,
      "Pand": 2452,
      "Ren": 2453,
      "Rock": 2454,
      "Sil": 2455,
      "Tav": 2456,
      "Vi": 2457,
      "Way": 2458,
      "average": 2459,
      "brough": 2460,
      "bility": 2461,
      "bought": 2462,
      "cis": 2463,
      "cing": 2464,
      "ded": 2465,
      "down": 2466,
      "dict": 2467,
      "ey": 2468,
      "eas": 2469,
      "fri": 2470,
      "fast": 2471,
      "fair": 2472,
      "fail": 2473,
      "fellow": 2474,
      "frew": 2475,
      "ged": 2476,
      "gave": 2477,
      "glob": 2478,
      "ham": 2479,
      "how": 2480,
      "hus": 2481,
      "hum": 2482,
      "hind": 2483,
      "ither": 2484,
      "iate": 2485,
      "ible": 2486,
      "lack": 2487,
      "lang": 2488,
      "mp": 2489,
      "mical": 2490,
      "nan": 2491,
      "ned": 2492,
      "oto": 2493,
      "oth": 2494,
      "olean": 2495,
      "pit": 2496,
      "pap": 2497,
      "pts": 2498,
      "paren": 2499,
      "rate": 2500,
      "sof": 2501,
      "sist": 2502,
      "tal": 2503,
      "tinu": 2504,
      "uit": 2505,
      "vate": 2506,
      "wear": 2507,
      "wide": 2508,
      "wise": 2509,
      "yr": 2510,
      "yz": 2511,
      "za": 2512,
      "heim": 2513,
      "inal": 2514,
      "ination": 2515,
      "ones": 2516,
      "rest": 2517,
      "recent": 2518,
      "edition": 2519,
      "alth": 2520,
      "ena": 2521,
      "sto": 2522,
      "station": 2523,
      "stra": 2524,
      "ites": 2525,
      "esthe": 2526,
      "esis": 2527,
      "especi": 2528,
      "icated": 2529,
      "least": 2530,
      "leave": 2531,
      "thr": 2532,
      "amount": 2533,
      "ili": 2534,
      "deg": 2535,
      "depart": 2536,
      "see": 2537,
      "semi": 2538,
      "semic": 2539,
      "seven": 2540,
      "behind": 2541,
      "provide": 2542,
      "veh": 2543,
      "conver": 2544,
      "univers": 2545,
      "iment": 2546,
      "imens": 2547,
      "import": 2548,
      "ctors": 2549,
      "territ": 2550,
      "tertain": 2551,
      "ago": 2552,
      "2024": 2553,
      "app": 2554,
      "apons": 2555,
      "very": 2556,
      "suffer": 2557,
      "ably": 2558,
      "cession": 2559,
      "look": 2560,
      "next": 2561,
      "artment": 2562,
      "soph": 2563,
      "exist": 2564,
      "example": 2565,
      "civil": 2566,
      "thers": 2567,
      "pose": 2568,
      "poet": 2569,
      "ills": 2570,
      "moder": 2571,
      "erson": 2572,
      "ify": 2573,
      "ournal": 2574,
      "oney": 2575,
      "manager": 2576,
      "creation": 2577,
      "Chill": 2578,
      "surname": 2579,
      "lands": 2580,
      "2007": 2581,
      "ologies": 2582,
      "pread": 2583,
      "finan": 2584,
      "ansion": 2585,
      "Arab": 2586,
      "maid": 2587,
      "avail": 2588,
      "1994": 2589,
      "1997": 2590,
      "occur": 2591,
      "graph": 2592,
      "know": 2593,
      "genus": 2594,
      "gency": 2595,
      "ampa": 2596,
      "version": 2597,
      "goals": 2598,
      "mix": 2599,
      "location": 2600,
      "coll": 2601,
      "Ensign": 2602,
      "Entertain": 2603,
      "position": 2604,
      "counter": 2605,
      "council": 2606,
      "weights": 2607,
      "webs": 2608,
      "weapons": 2609,
      "disc": 2610,
      "relating": 2611,
      "shape": 2612,
      "range": 2613,
      "1988": 2614,
      "Columba": 2615,
      "albums": 2616,
      "Second": 2617,
      "1969": 2618,
      "Continu": 2619,
      "ledge": 2620,
      "passeng": 2621,
      "valu": 2622,
      "command": 2623,
      "Afgh": 2624,
      "Audio": 2625,
      "Automata": 2626,
      "Mining": 2627,
      "sula": 2628,
      "analysis": 2629,
      "foam": 2630,
      "technologies": 2631,
      "subsid": 2632,
      "involved": 2633,
      "continued": 2634,
      "wards": 2635,
      "1938": 2636,
      "Boolean": 2637,
      "match": 2638,
      "tempor": 2639,
      "adium": 2640,
      "appropri": 2641,
      "Techn": 2642,
      "originally": 2643,
      "While": 2644,
      "Southampton": 2645,
      "market": 2646,
      "multi": 2647,
      "oyo": 2648,
      "commonly": 2649,
      "listed": 2650,
      "recorded": 2651,
      "problem": 2652,
      "miles": 2653,
      "decided": 2654,
      "primary": 2655,
      "dynamics": 2656,
      "Serv": 2657,
      "independence": 2658,
      "studied": 2659,
      "political": 2660,
      "politician": 2661,
      "eastern": 2662,
      "interests": 2663,
      "microzy": 2664,
      "Airport": 2665,
      "defined": 2666,
      "rails": 2667,
      "visitors": 2668,
      "introduced": 2669,
      "Canada": 2670,
      "Donald": 2671,
      "Muslim": 2672,
      "increased": 2673,
      "trading": 2674,
      "control": 2675,
      "controll": 2676,
      "Mako": 2677,
      "consider": 2678,
      "habitat": 2679,
      "western": 2680,
      "promoted": 2681,
      "AnaLog": 2682,
      "building": 2683,
      "duty": 2684,
      "previous": 2685,
      "arranged": 2686,
      "melodic": 2687,
      "Premi": 2688,
      "leaving": 2689,
      "meaning": 2690,
      "mechanism": 2691,
      "Ashmole": 2692,
      "Pangani": 2693,
      "Two": 2694,
      "Uzigua": 2695,
      "cluded": 2696,
      "jurisdict": 2697,
      "Surf": 2698,
      "economic": 2699,
      "inspired": 2700,
      "television": 2701,
      "employ": 2702,
      "capacity": 2703,
      "Bilbao": 2704,
      "Democratic": 2705,
      "Republic": 2706,
      "Ireland": 2707,
      "Joubert": 2708,
      "José": 2709,
      "Otto": 2710,
      "Renfrew": 2711,
      "brought": 2712,
      "husband": 2713,
      "langu": 2714,
      "especially": 2715,
      "semicondu": 2716,
      "available": 2717,
      "Entertainment": 2718,
      "Continuous": 2719,
      "subsidi": 2720,
      "microzyga": 2721,
      "AnaLogic": 2722,
      "\".": 2723,
      ")[": 2724,
      "300": 2725,
      "500": 2726,
      "61": 2727,
      "70": 2728,
      "88": 2729,
      "89": 2730,
      "94": 2731,
      "96": 2732,
      "Ale": 2733,
      "Bot": 2734,
      "Bill": 2735,
      "Bath": 2736,
      "BSA": 2737,
      "Battle": 2738,
      "CO": 2739,
      "Cel": 2740,
      "Court": 2741,
      "Dav": 2742,
      "FM": 2743,
      "Fl": 2744,
      "Fo": 2745,
      "Fal": 2746,
      "Fore": 2747,
      "Further": 2748,
      "Ga": 2749,
      "Gree": 2750,
      "Hist": 2751,
      "Its": 2752,
      "Just": 2753,
      "James": 2754,
      "Kar": 2755,
      "Lin": 2756,
      "Lim": 2757,
      "Live": 2758,
      "Luc": 2759,
      "MO": 2760,
      "Mi": 2761,
      "Mo": 2762,
      "Mex": 2763,
      "Most": 2764,
      "Ox": 2765,
      "Pe": 2766,
      "Pen": 2767,
      "Pet": 2768,
      "Part": 2769,
      "Pipp": 2770,
      "Roman": 2771,
      "Russ": 2772,
      "Sto": 2773,
      "Sir": 2774,
      "Str": 2775,
      "TA": 2776,
      "TC": 2777,
      "UL": 2778,
      "UN": 2779,
      "VI": 2780,
      "Ven": 2781,
      "Vol": 2782,
      "Vampires": 2783,
      "WFM": 2784,
      "Year": 2785,
      "York": 2786,
      "ax": 2787,
      "bing": 2788,
      "bly": 2789,
      "cin": 2790,
      "cat": 2791,
      "cut": 2792,
      "cop": 2793,
      "crit": 2794,
      "cident": 2795,
      "carried": 2796,
      "dle": 2797,
      "dog": 2798,
      "done": 2799,
      "dimens": 2800,
      "ez": 2801,
      "either": 2802,
      "fem": 2803,
      "fund": 2804,
      "get": 2805,
      "hp": 2806,
      "hig": 2807,
      "hun": 2808,
      "hare": 2809,
      "ium": 2810,
      "kW": 2811,
      "ler": 2812,
      "lat": 2813,
      "lists": 2814,
      "living": 2815,
      "mur": 2816,
      "mach": 2817,
      "makes": 2818,
      "nine": 2819,
      "night": 2820,
      "nature": 2821,
      "odi": 2822,
      "pp": 2823,
      "pag": 2824,
      "pip": 2825,
      "page": 2826,
      "phen": 2827,
      "ror": 2828,
      "rul": 2829,
      "sw": 2830,
      "sand": 2831,
      "sus": 2832,
      "scre": 2833,
      "scient": 2834,
      "southern": 2835,
      "spread": 2836,
      "tree": 2837,
      "tua": 2838,
      "uals": 2839,
      "vo": 2840,
      "voc": 2841,
      "went": 2842,
      "wart": 2843,
      "wana": 2844,
      "yn": 2845,
      "init": 2846,
      "inas": 2847,
      "inity": 2848,
      "insula": 2849,
      "ances": 2850,
      "ony": 2851,
      "onz": 2852,
      "err": 2853,
      "ream": 2854,
      "reme": 2855,
      "reason": 2856,
      "remain": 2857,
      "reported": 2858,
      "atory": 2859,
      "alog": 2860,
      "ense": 2861,
      "enci": 2862,
      "enough": 2863,
      "ardi": 2864,
      "andem": 2865,
      "itar": 2866,
      "aspe": 2867,
      "room": 2868,
      "lect": 2869,
      "thod": 2870,
      "threat": 2871,
      "dev": 2872,
      "defe": 2873,
      "acy": 2874,
      "acul": 2875,
      "sea": 2876,
      "seem": 2877,
      "security": 2878,
      "olar": 2879,
      "irls": 2880,
      "bet": 2881,
      "lyric": 2882,
      "urning": 2883,
      "igure": 2884,
      "igence": 2885,
      "propos": 2886,
      "Their": 2887,
      "vein": 2888,
      "chart": 2889,
      "chair": 2890,
      "chuk": 2891,
      "convent": 2892,
      "concert": 2893,
      "una": 2894,
      "united": 2895,
      "admit": 2896,
      "tell": 2897,
      "usion": 2898,
      "esses": 2899,
      "agon": 2900,
      "2023": 2901,
      "idae": 2902,
      "etro": 2903,
      "otte": 2904,
      "white": 2905,
      "istock": 2906,
      "utes": 2907,
      "coming": 2908,
      "composed": 2909,
      "plug": 2910,
      "super": 2911,
      "ema": 2912,
      "shall": 2913,
      "should": 2914,
      "rian": 2915,
      "neur": 2916,
      "necess": 2917,
      "neigh": 2918,
      "negot": 2919,
      "die": 2920,
      "resid": 2921,
      "resolution": 2922,
      "ull": 2923,
      "exhi": 2924,
      "cience": 2925,
      "person": 2926,
      "training": 2927,
      "poaching": 2928,
      "mental": 2929,
      "igned": 2930,
      "owners": 2931,
      "tware": 2932,
      "optim": 2933,
      "185": 2934,
      "assist": 2935,
      "activity": 2936,
      "estim": 2937,
      "whose": 2938,
      "2011": 2939,
      "awal": 2940,
      "Stu": 2941,
      "Stre": 2942,
      "Stadium": 2943,
      "others": 2944,
      "output": 2945,
      "bran": 2946,
      "brand": 2947,
      "2009": 2948,
      "visual": 2949,
      "audi": 2950,
      "spect": 2951,
      "Argent": 2952,
      "Archer": 2953,
      "signals": 2954,
      "monitor": 2955,
      "1996": 2956,
      "ensive": 2957,
      "libr": 2958,
      "liament": 2959,
      "Spain": 2960,
      "goats": 2961,
      "hedul": 2962,
      "End": 2963,
      "Asia": 2964,
      "news": 2965,
      "fect": 2966,
      "philo": 2967,
      "photo": 2968,
      "unda": 2969,
      "152": 2970,
      "week": 2971,
      "idential": 2972,
      "expansion": 2973,
      "clubs": 2974,
      "1983": 2975,
      "1985": 2976,
      "social": 2977,
      "centre": 2978,
      "central": 2979,
      "aceae": 2980,
      "Secret": 2981,
      "1961": 2982,
      "1967": 2983,
      "schedul": 2984,
      "developing": 2985,
      "Pertua": 2986,
      "Shiny": 2987,
      "himself": 2988,
      "border": 2989,
      "Common": 2990,
      "capital": 2991,
      "grow": 2992,
      "highly": 2993,
      "erná": 2994,
      "simple": 2995,
      "throughout": 2996,
      "region": 2997,
      "regist": 2998,
      "regard": 2999,
      "contestants": 3000,
      "Juan": 3001,
      "Before": 3002,
      "analyz": 3003,
      "allowing": 3004,
      "invol": 3005,
      "publication": 3006,
      "McC": 3007,
      "McGl": 3008,
      "Northern": 3009,
      "variation": 3010,
      "variety": 3011,
      "transfer": 3012,
      "Prince": 3013,
      "Profess": 3014,
      "structures": 3015,
      "1930": 3016,
      "thought": 3017,
      "chemical": 3018,
      "ashan": 3019,
      "guitar": 3020,
      "operations": 3021,
      "resulted": 3022,
      "strike": 3023,
      "approxim": 3024,
      "presented": 3025,
      "middle": 3026,
      "ergy": 3027,
      "venture": 3028,
      "1958": 3029,
      "appeared": 3030,
      "reduction": 3031,
      "Cooke": 3032,
      "private": 3033,
      "services": 3034,
      "Negar": 3035,
      "Sara": 3036,
      "incorporated": 3037,
      "incorporates": 3038,
      "ordered": 3039,
      "Australian": 3040,
      "Germany": 3041,
      "Sovi": 3042,
      "study": 3043,
      "Compu": 3044,
      "Hope": 3045,
      "Manager": 3046,
      "Thom": 3047,
      "stein": 3048,
      "Government": 3049,
      "ctively": 3050,
      "Pope": 3051,
      "trade": 3052,
      "minister": 3053,
      "eventually": 3054,
      "Nagar": 3055,
      "much": 3056,
      "winning": 3057,
      "constructed": 3058,
      "responsible": 3059,
      "types": 3060,
      "typically": 3061,
      "covered": 3062,
      "Grey": 3063,
      "Kee": 3064,
      "Turkey": 3065,
      "citation": 3066,
      "citiz": 3067,
      "offered": 3068,
      "confidential": 3069,
      "archaeologist": 3070,
      "considered": 3071,
      "basis": 3072,
      "career": 3073,
      "hospital": 3074,
      "little": 3075,
      "ready": 3076,
      "professional": 3077,
      "individuals": 3078,
      "horror": 3079,
      "aughter": 3080,
      "purchased": 3081,
      "potential": 3082,
      "Bush": 3083,
      "Division": 3084,
      "Department": 3085,
      "hosted": 3086,
      "ject": 3087,
      "constructive": 3088,
      "claimed": 3089,
      "algorithm": 3090,
      "diplomatic": 3091,
      "episode": 3092,
      "Joseph": 3093,
      "Shambaa": 3094,
      "particularly": 3095,
      "Archaeology": 3096,
      "Bondei": 3097,
      "Simon": 3098,
      "closed": 3099,
      "wildlife": 3100,
      "ariant": 3101,
      "beginning": 3102,
      "appren": 3103,
      "modeled": 3104,
      "completely": 3105,
      "Society": 3106,
      "excavations": 3107,
      "Pandey": 3108,
      "Tavistock": 3109,
      "parents": 3110,
      "degree": 3111,
      "modern": 3112,
      "ampaign": 3113,
      "appropriate": 3114,
      "language": 3115,
      "David": 3116,
      "Furthermore": 3117,
      "Greece": 3118,
      "Karawal": 3119,
      "Lucy": 3120,
      "Oxford": 3121,
      "Pippin": 3122,
      "latter": 3123,
      "encies": 3124,
      "philosoph": 3125,
      "McGlashan": 3126,
      "Professor": 3127,
      "Negara": 3128,
      "),[": 3129,
      ".,": 3130,
      "35": 3131,
      "322": 3132,
      "324": 3133,
      "43": 3134,
      "48": 3135,
      "63": 3136,
      "92": 3137,
      "Ap": 3138,
      "ANN": 3139,
      "Athen": 3140,
      "Bas": 3141,
      "Cav": 3142,
      "Cather": 3143,
      "Den": 3144,
      "Dou": 3145,
      "Dri": 3146,
      "Ed": 3147,
      "Ear": 3148,
      "FL": 3149,
      "Fi": 3150,
      "Fre": 3151,
      "Fly": 3152,
      "Food": 3153,
      "Fellow": 3154,
      "GT": 3155,
      "Gi": 3156,
      "Get": 3157,
      "God": 3158,
      "Great": 3159,
      "High": 3160,
      "Hold": 3161,
      "Herná": 3162,
      "IA": 3163,
      "IN": 3164,
      "Ian": 3165,
      "Iran": 3166,
      "Je": 3167,
      "Kaz": 3168,
      "Lou": 3169,
      "Lord": 3170,
      "Lane": 3171,
      "Mer": 3172,
      "Med": 3173,
      "Mur": 3174,
      "Mun": 3175,
      "Mach": 3176,
      "Moyo": 3177,
      "Oh": 3178,
      "Odes": 3179,
      "Own": 3180,
      "Por": 3181,
      "Pri": 3182,
      "Post": 3183,
      "Produ": 3184,
      "RD": 3185,
      "RI": 3186,
      "SD": 3187,
      "ST": 3188,
      "Su": 3189,
      "Sat": 3190,
      "Sch": 3191,
      "Sus": 3192,
      "Scre": 3193,
      "Sound": 3194,
      "Since": 3195,
      "Southern": 3196,
      "Six": 3197,
      "To": 3198,
      "Temp": 3199,
      "WC": 3200,
      "Wi": 3201,
      "Wal": 3202,
      "With": 3203,
      "Wall": 3204,
      "ael": 3205,
      "adel": 3206,
      "bal": 3207,
      "bol": 3208,
      "bour": 3209,
      "cab": 3210,
      "cure": 3211,
      "cour": 3212,
      "cens": 3213,
      "case": 3214,
      "carri": 3215,
      "chers": 3216,
      "campaign": 3217,
      "dic": 3218,
      "daughter": 3219,
      "fa": 3220,
      "fu": 3221,
      "fly": 3222,
      "foun": 3223,
      "fav": 3224,
      "fli": 3225,
      "father": 3226,
      "gre": 3227,
      "ges": 3228,
      "ging": 3229,
      "gle": 3230,
      "give": 3231,
      "great": 3232,
      "hon": 3233,
      "har": 3234,
      "hit": 3235,
      "hard": 3236,
      "hous": 3237,
      "hund": 3238,
      "ihad": 3239,
      "jud": 3240,
      "km": 3241,
      "kin": 3242,
      "leng": 3243,
      "mag": 3244,
      "mut": 3245,
      "ns": 3246,
      "né": 3247,
      "obl": 3248,
      "pen": 3249,
      "pted": 3250,
      "rum": 3251,
      "sens": 3252,
      "ties": 3253,
      "tend": 3254,
      "uro": 3255,
      "var": 3256,
      "woman": 3257,
      "you": 3258,
      "ال": 3259,
      "hero": 3260,
      "inf": 3261,
      "inst": 3262,
      "inth": 3263,
      "inted": 3264,
      "inue": 3265,
      "innov": 3266,
      "instead": 3267,
      "anesthe": 3268,
      "eri": 3269,
      "ery": 3270,
      "erous": 3271,
      "reac": 3272,
      "ora": 3273,
      "ala": 3274,
      "enced": 3275,
      "energy": 3276,
      "stan": 3277,
      "itage": 3278,
      "itself": 3279,
      "aser": 3280,
      "asing": 3281,
      "association": 3282,
      "asked": 3283,
      "ission": 3284,
      "ese": 3285,
      "esia": 3286,
      "icts": 3287,
      "row": 3288,
      "told": 3289,
      "letic": 3290,
      "thir": 3291,
      "amed": 3292,
      "enter": 3293,
      "demon": 3294,
      "aca": 3295,
      "acre": 3296,
      "acing": 3297,
      "acro": 3298,
      "achers": 3299,
      "according": 3300,
      "accident": 3301,
      "force": 3302,
      "sex": 3303,
      "separ": 3304,
      "secession": 3305,
      "olf": 3306,
      "beat": 3307,
      "lywood": 3308,
      "ura": 3309,
      "urer": 3310,
      "uration": 3311,
      "prob": 3312,
      "proto": 3313,
      "promin": 3314,
      "promis": 3315,
      "propag": 3316,
      "veen": 3317,
      "ching": 3318,
      "chang": 3319,
      "chann": 3320,
      "choir": 3321,
      "consum": 3322,
      "concept": 3323,
      "unit": 3324,
      "unga": 3325,
      "impro": 3326,
      "cting": 3327,
      "terms": 3328,
      "uscri": 3329,
      "1918": 3330,
      "aying": 3331,
      "essed": 3332,
      "aging": 3333,
      "agencies": 3334,
      "2021": 3335,
      "ider": 3336,
      "ares": 3337,
      "etam": 3338,
      "ota": 3339,
      "els": 3340,
      "eline": 3341,
      "util": 3342,
      "utive": 3343,
      "plies": 3344,
      "suit": 3345,
      "Inc": 3346,
      "abha": 3347,
      "above": 3348,
      "emer": 3349,
      "shore": 3350,
      "shop": 3351,
      "neo": 3352,
      "never": 3353,
      "neum": 3354,
      "reser": 3355,
      "respe": 3356,
      "residing": 3357,
      "artist": 3358,
      "articles": 3359,
      "ulu": 3360,
      "ulpt": 3361,
      "sole": 3362,
      "ument": 3363,
      "excl": 3364,
      "traff": 3365,
      "pod": 3366,
      "allen": 3367,
      "mother": 3368,
      "aking": 3369,
      "dero": 3370,
      "worth": 3371,
      "asts": 3372,
      "endish": 3373,
      "owner": 3374,
      "187": 3375,
      "ival": 3376,
      "ivory": 3377,
      "odes": 3378,
      "assical": 3379,
      "active": 3380,
      "actions": 3381,
      "manu": 3382,
      "managed": 3383,
      "manuscri": 3384,
      "otherwise": 3385,
      "cred": 3386,
      "Chua": 3387,
      "surve": 3388,
      "surround": 3389,
      "2000s": 3390,
      "meet": 3391,
      "minor": 3392,
      "miners": 3393,
      "anga": 3394,
      "angered": 3395,
      "fins": 3396,
      "finished": 3397,
      "ference": 3398,
      "maxim": 3399,
      "signal": 3400,
      "Union": 3401,
      "Under": 3402,
      "aven": 3403,
      "aves": 3404,
      "Alb": 3405,
      "sym": 3406,
      "1998": 3407,
      "1990s": 3408,
      "ocus": 3409,
      "strate": 3410,
      "strong": 3411,
      "foreign": 3412,
      "granted": 3413,
      "knife": 3414,
      "playoff": 3415,
      "ampions": 3416,
      "versity": 3417,
      "versions": 3418,
      "span": 3419,
      "spaces": 3420,
      "Italian": 3421,
      "medical": 3422,
      "evolved": 3423,
      "novel": 3424,
      "continue": 3425,
      "rick": 3426,
      "fied": 3427,
      "fiber": 3428,
      "themsel": 3429,
      "flag": 3430,
      "veloper": 3431,
      "1974": 3432,
      "1975": 3433,
      "1979": 3434,
      "useful": 3435,
      "identical": 3436,
      "discrete": 3437,
      "numerous": 3438,
      "1982": 3439,
      "1980s": 3440,
      "Colom": 3441,
      "ailing": 3442,
      "Jane": 3443,
      "See": 3444,
      "Malaya": 3445,
      "biodi": 3446,
      "commission": 3447,
      "attack": 3448,
      "Minnes": 3449,
      "products": 3450,
      "join": 3451,
      "joint": 3452,
      "regiment": 3453,
      "contests": 3454,
      "Reid": 3455,
      "memor": 3456,
      "breasts": 3457,
      "Beaz": 3458,
      "blackened": 3459,
      "fruit": 3460,
      "invariant": 3461,
      "request": 3462,
      "continues": 3463,
      "Prabha": 3464,
      "doctor": 3465,
      "direct": 3466,
      "directed": 3467,
      "distribut": 3468,
      "1936": 3469,
      "supposed": 3470,
      "Stars": 3471,
      "rently": 3472,
      "Japanese": 3473,
      "Classical": 3474,
      "writing": 3475,
      "Scotus": 3476,
      "resulting": 3477,
      "striker": 3478,
      "Virunga": 3479,
      "connections": 3480,
      "collection": 3481,
      "collected": 3482,
      "III": 3483,
      "Origin": 3484,
      "Trans": 3485,
      "Trinity": 3486,
      "application": 3487,
      "opening": 3488,
      "Council": 3489,
      "parks": 3490,
      "takes": 3491,
      "letter": 3492,
      "leading": 3493,
      "shows": 3494,
      "nonlinear": 3495,
      "topologically": 3496,
      "ordinary": 3497,
      "student": 3498,
      "students": 3499,
      "decision": 3500,
      "crow": 3501,
      "cross": 3502,
      "ecutive": 3503,
      "effe": 3504,
      "studies": 3505,
      "majority": 3506,
      "extensive": 3507,
      "Francis": 3508,
      "awarded": 3509,
      "Heritage": 3510,
      "Mont": 3511,
      "advant": 3512,
      "Anderson": 3513,
      "introduction": 3514,
      "complexity": 3515,
      "appearance": 3516,
      "Music": 3517,
      "Paris": 3518,
      "Parliament": 3519,
      "arena": 3520,
      "tradition": 3521,
      "competition": 3522,
      "Add": 3523,
      "Green": 3524,
      "Mathemat": 3525,
      "Maksim": 3526,
      "education": 3527,
      "educated": 3528,
      "premiere": 3529,
      "significantly": 3530,
      "Brow": 3531,
      "Hollywood": 3532,
      "broadcast": 3533,
      "liter": 3534,
      "painting": 3535,
      "influence": 3536,
      "participants": 3537,
      "individual": 3538,
      "Athletic": 3539,
      "boundary": 3540,
      "referred": 3541,
      "conducted": 3542,
      "contains": 3543,
      "emergent": 3544,
      "finding": 3545,
      "mathematical": 3546,
      "historian": 3547,
      "characteristics": 3548,
      "successful": 3549,
      "potentially": 3550,
      "Borneo": 3551,
      "Dissection": 3552,
      "Georg": 3553,
      "Jesus": 3554,
      "Netfli": 3555,
      "coupl": 3556,
      "flex": 3557,
      "senior": 3558,
      "scholar": 3559,
      "integr": 3560,
      "inputs": 3561,
      "remedy": 3562,
      "associated": 3563,
      "requirements": 3564,
      "programming": 3565,
      "communications": 3566,
      "Kingdom": 3567,
      "bassador": 3568,
      "features": 3569,
      "Constitution": 3570,
      "distinct": 3571,
      "Research": 3572,
      "Congo": 3573,
      "square": 3574,
      "source": 3575,
      "selling": 3576,
      "logic": 3577,
      "exempt": 3578,
      "quarter": 3579,
      "Region": 3580,
      "subsequently": 3581,
      "templates": 3582,
      "According": 3583,
      "Currently": 3584,
      "Cellular": 3585,
      "Irish": 3586,
      "Muell": 3587,
      "software": 3588,
      "recently": 3589,
      "converted": 3590,
      "universal": 3591,
      "knowledge": 3592,
      "mixing": 3593,
      "counterparts": 3594,
      "passengers": 3595,
      "Technology": 3596,
      "semiconductor": 3597,
      "Alex": 3598,
      "Celtic": 3599,
      "History": 3600,
      "Mike": 3601,
      "dogs": 3602,
      "female": 3603,
      "susp": 3604,
      "screen": 3605,
      "aspects": 3606,
      "lyrics": 3607,
      "conventional": 3608,
      "neurons": 3609,
      "necessary": 3610,
      "Secretary": 3611,
      "McCart": 3612,
      "Thomas": 3613,
      "Cavendish": 3614,
      "Catherine": 3615,
      "GTRI": 3616,
      "Holders": 3617,
      "Hernáez": 3618,
      "Odesa": 3619,
      "Owners": 3620,
      "Productions": 3621,
      "Susan": 3622,
      "Scream": 3623,
      "Tempü": 3624,
      "census": 3625,
      "founder": 3626,
      "hundred": 3627,
      "length": 3628,
      "née": 3629,
      "oblig": 3630,
      "prominent": 3631,
      "propagation": 3632,
      "channel": 3633,
      "traffic": 3634,
      "maximum": 3635,
      "themselves": 3636,
      "biodiversity": 3637,
      "Minnesota": 3638,
      "Beazley": 3639,
      "Netflix": 3640,
      "323": 3641,
      "339": 3642,
      "41": 3643,
      "44": 3644,
      "47": 3645,
      "49": 3646,
      "51": 3647,
      "52": 3648,
      "64": 3649,
      "85": 3650,
      "95": 3651,
      "Aca": 3652,
      "ACE": 3653,
      "Agency": 3654,
      "BI": 3655,
      "Br": 3656,
      "Ben": 3657,
      "Best": 3658,
      "Bang": 3659,
      "Bren": 3660,
      "B339": 3661,
      "Cy": 3662,
      "Cle": 3663,
      "Cab": 3664,
      "Card": 3665,
      "Camp": 3666,
      "Cec": 3667,
      "Di": 3668,
      "Dar": 3669,
      "Dot": 3670,
      "Dod": 3671,
      "Dire": 3672,
      "Dale": 3673,
      "DNA": 3674,
      "EA": 3675,
      "Es": 3676,
      "Et": 3677,
      "Ecu": 3678,
      "FA": 3679,
      "Fow": 3680,
      "FPG": 3681,
      "Gar": 3682,
      "Girls": 3683,
      "Hor": 3684,
      "Hil": 3685,
      "Hot": 3686,
      "Here": 3687,
      "Hos": 3688,
      "Hoc": 3689,
      "House": 3690,
      "Id": 3691,
      "Iona": 3692,
      "Jer": 3693,
      "Jac": 3694,
      "Jul": 3695,
      "Jama": 3696,
      "K2": 3697,
      "Kans": 3698,
      "Kitu": 3699,
      "KST": 3700,
      "Lt": 3701,
      "Lig": 3702,
      "Lag": 3703,
      "Living": 3704,
      "Labor": 3705,
      "Mat": 3706,
      "Mand": 3707,
      "Mig": 3708,
      "Mag": 3709,
      "Mel": 3710,
      "Mark": 3711,
      "Mount": 3712,
      "Metro": 3713,
      "Now": 3714,
      "Os": 3715,
      "Oly": 3716,
      "Old": 3717,
      "Off": 3718,
      "PO": 3719,
      "Pain": 3720,
      "Play": 3721,
      "Port": 3722,
      "Paces": 3723,
      "Qu": 3724,
      "Ru": 3725,
      "Red": 3726,
      "Ram": 3727,
      "Rite": 3728,
      "Sa": 3729,
      "Sac": 3730,
      "Spe": 3731,
      "Sum": 3732,
      "Sup": 3733,
      "TO": 3734,
      "Ten": 3735,
      "Tom": 3736,
      "Tra": 3737,
      "Tod": 3738,
      "Tell": 3739,
      "Tanga": 3740,
      "Vill": 3741,
      "We": 3742,
      "Water": 3743,
      "Wild": 3744,
      "aut": 3745,
      "aqu": 3746,
      "aired": 3747,
      "bt": 3748,
      "bac": 3749,
      "big": 3750,
      "bad": 3751,
      "blo": 3752,
      "bill": 3753,
      "bust": 3754,
      "bird": 3755,
      "cr": 3756,
      "cal": 3757,
      "cam": 3758,
      "core": 3759,
      "cust": 3760,
      "cult": 3761,
      "cca": 3762,
      "clean": 3763,
      "cattle": 3764,
      "din": 3765,
      "den": 3766,
      "ding": 3767,
      "dam": 3768,
      "dale": 3769,
      "ees": 3770,
      "eth": 3771,
      "ease": 3772,
      "fest": 3773,
      "fire": 3774,
      "free": 3775,
      "food": 3776,
      "faster": 3777,
      "fought": 3778,
      "gra": 3779,
      "gold": 3780,
      "hur": 3781,
      "hip": 3782,
      "hired": 3783,
      "hood": 3784,
      "iy": 3785,
      "ien": 3786,
      "iel": 3787,
      "ique": 3788,
      "iya": 3789,
      "ión": 3790,
      "ju": 3791,
      "jah": 3792,
      "journal": 3793,
      "ka": 3794,
      "kins": 3795,
      "lif": 3796,
      "lived": 3797,
      "lives": 3798,
      "mm": 3799,
      "mand": 3800,
      "mam": 3801,
      "mig": 3802,
      "mess": 3803,
      "mist": 3804,
      "mbl": 3805,
      "mouth": 3806,
      "master": 3807,
      "malian": 3808,
      "money": 3809,
      "nat": 3810,
      "nation": 3811,
      "oples": 3812,
      "pi": 3813,
      "past": 3814,
      "path": 3815,
      "pite": 3816,
      "pale": 3817,
      "pneum": 3818,
      "ring": 3819,
      "rub": 3820,
      "rary": 3821,
      "rative": 3822,
      "rights": 3823,
      "radio": 3824,
      "sn": 3825,
      "sat": 3826,
      "sam": 3827,
      "sil": 3828,
      "send": 3829,
      "saw": 3830,
      "scor": 3831,
      "sports": 3832,
      "sales": 3833,
      "situ": 3834,
      "science": 3835,
      "sailing": 3836,
      "tv": 3837,
      "tas": 3838,
      "tro": 3839,
      "tun": 3840,
      "tical": 3841,
      "tice": 3842,
      "tick": 3843,
      "turn": 3844,
      "treat": 3845,
      "turning": 3846,
      "uan": 3847,
      "vin": 3848,
      "vor": 3849,
      "vic": 3850,
      "vase": 3851,
      "vict": 3852,
      "vince": 3853,
      "wa": 3854,
      "wan": 3855,
      "wings": 3856,
      "wick": 3857,
      "wanted": 3858,
      "wema": 3859,
      "weri": 3860,
      "yer": 3861,
      "yed": 3862,
      "yet": 3863,
      "ás": 3864,
      "ús": 3865,
      "hest": 3866,
      "heav": 3867,
      "health": 3868,
      "ink": 3869,
      "inn": 3870,
      "inet": 3871,
      "instit": 3872,
      "anical": 3873,
      "ancient": 3874,
      "thes": 3875,
      "theore": 3876,
      "onic": 3877,
      "ert": 3878,
      "erals": 3879,
      "rect": 3880,
      "remo": 3881,
      "retain": 3882,
      "atre": 3883,
      "oral": 3884,
      "oration": 3885,
      "orche": 3886,
      "eda": 3887,
      "edited": 3888,
      "ederal": 3889,
      "alle": 3890,
      "alty": 3891,
      "almost": 3892,
      "altern": 3893,
      "always": 3894,
      "enant": 3895,
      "endemic": 3896,
      "sted": 3897,
      "stro": 3898,
      "stical": 3899,
      "stations": 3900,
      "stamp": 3901,
      "stories": 3902,
      "arms": 3903,
      "arbit": 3904,
      "anda": 3905,
      "iting": 3906,
      "itation": 3907,
      "itors": 3908,
      "asy": 3909,
      "ases": 3910,
      "asion": 3911,
      "ising": 3912,
      "isión": 3913,
      "escap": 3914,
      "inga": 3915,
      "ington": 3916,
      "icip": 3917,
      "robust": 3918,
      "ione": 3919,
      "today": 3920,
      "towards": 3921,
      "tobac": 3922,
      "leton": 3923,
      "illegal": 3924,
      "enty": 3925,
      "ention": 3926,
      "entire": 3927,
      "entities": 3928,
      "determin": 3929,
      "determ": 3930,
      "detail": 3931,
      "aced": 3932,
      "acts": 3933,
      "acres": 3934,
      "accur": 3935,
      "forced": 3936,
      "seas": 3937,
      "irk": 3938,
      "irl": 3939,
      "igious": 3940,
      "progress": 3941,
      "veter": 3942,
      "chos": 3943,
      "championship": 3944,
      "chron": 3945,
      "consequ": 3946,
      "contempor": 3947,
      "concluded": 3948,
      "unity": 3949,
      "unions": 3950,
      "unless": 3951,
      "ades": 3952,
      "advis": 3953,
      "adjust": 3954,
      "adventure": 3955,
      "imp": 3956,
      "tee": 3957,
      "usive": 3958,
      "usually": 3959,
      "ceased": 3960,
      "ceeded": 3961,
      "ayan": 3962,
      "agent": 3963,
      "agric": 3964,
      "agement": 3965,
      "agency": 3966,
      "ida": 3967,
      "ape": 3968,
      "applied": 3969,
      "etc": 3970,
      "etter": 3971,
      "etnam": 3972,
      "oted": 3973,
      "whom": 3974,
      "istic": 3975,
      "elt": 3976,
      "uta": 3977,
      "utenant": 3978,
      "come": 3979,
      "comment": 3980,
      "commer": 3981,
      "compos": 3982,
      "plain": 3983,
      "plans": 3984,
      "sure": 3985,
      "sule": 3986,
      "Invest": 3987,
      "abil": 3988,
      "cessor": 3989,
      "embr": 3990,
      "shire": 3991,
      "ria": 3992,
      "rip": 3993,
      "tsmouth": 3994,
      "pected": 3995,
      "peoples": 3996,
      "nested": 3997,
      "divided": 3998,
      "ulations": 3999,
      "ume": 4000,
      "uments": 4001,
      "exam": 4002,
      "exact": 4003,
      "exists": 4004,
      "experi": 4005,
      "exchange": 4006,
      "executive": 4007,
      "ciences": 4008,
      "clar": 4009,
      "clesia": 4010,
      "perman": 4011,
      "poor": 4012,
      "allar": 4013,
      "moving": 4014,
      "oga": 4015,
      "akh": 4016,
      "mention": 4017,
      "boy": 4018,
      "qual": 4019,
      "forming": 4020,
      "ichl": 4021,
      "derived": 4022,
      "rair": 4023,
      "raised": 4024,
      "astic": 4025,
      "astro": 4026,
      "twice": 4027,
      "canon": 4028,
      "1845": 4029,
      "uster": 4030,
      "ody": 4031,
      "ester": 4032,
      "estate": 4033,
      "urethan": 4034,
      "Start": 4035,
      "lligence": 4036,
      "Ancient": 4037,
      "Analog": 4038,
      "Chan": 4039,
      "Chile": 4040,
      "Chines": 4041,
      "bring": 4042,
      "keleton": 4043,
      "2003": 4044,
      "2005": 4045,
      "method": 4046,
      "pring": 4047,
      "pract": 4048,
      "prison": 4049,
      "printed": 4050,
      "izes": 4051,
      "minator": 4052,
      "minutes": 4053,
      "achie": 4054,
      "visited": 4055,
      "angle": 4056,
      "auto": 4057,
      "audio": 4058,
      "irement": 4059,
      "prevent": 4060,
      "fined": 4061,
      "finish": 4062,
      "finals": 4063,
      "serves": 4064,
      "Army": 4065,
      "Album": 4066,
      "interact": 4067,
      "interland": 4068,
      "monk": 4069,
      "1990": 4070,
      "occo": 4071,
      "strict": 4072,
      "merman": 4073,
      "player": 4074,
      "alsa": 4075,
      "1619": 4076,
      "1622": 4077,
      "1624": 4078,
      "1625": 4079,
      "blessed": 4080,
      "desc": 4081,
      "specified": 4082,
      "times": 4083,
      "Joe": 4084,
      "Road": 4085,
      "nose": 4086,
      "stems": 4087,
      "mixed": 4088,
      "locally": 4089,
      "coln": 4090,
      "170": 4091,
      "Assist": 4092,
      "oked": 4093,
      "count": 4094,
      "feet": 4095,
      "phia": 4096,
      "Develop": 4097,
      "flight": 4098,
      "retirement": 4099,
      "route": 4100,
      "1971": 4101,
      "1977": 4102,
      "1970s": 4103,
      "134": 4104,
      "names": 4105,
      "discovered": 4106,
      "ikai": 4107,
      "press": 4108,
      "1986": 4109,
      "1987": 4110,
      "Leon": 4111,
      "Security": 4112,
      "1968": 4113,
      "ulture": 4114,
      "Concert": 4115,
      "scen": 4116,
      "scene": 4117,
      "scored": 4118,
      "sculpt": 4119,
      "Shinga": 4120,
      "passing": 4121,
      "commit": 4122,
      "numbers": 4123,
      "captain": 4124,
      "capable": 4125,
      "capsule": 4126,
      "ground": 4127,
      "attended": 4128,
      "Miners": 4129,
      "iction": 4130,
      "sult": 4131,
      "job": 4132,
      "Robert": 4133,
      "gliding": 4134,
      "leyball": 4135,
      "News": 4136,
      "Record": 4137,
      "para": 4138,
      "paralle": 4139,
      "tribal": 4140,
      "annual": 4141,
      "extreme": 4142,
      "technical": 4143,
      "techniqu": 4144,
      "northern": 4145,
      "invasion": 4146,
      "losing": 4147,
      "McDonald": 4148,
      "McKee": 4149,
      "completed": 4150,
      "laws": 4151,
      "mainland": 4152,
      "atively": 4153,
      "difference": 4154,
      "distance": 4155,
      "patrick": 4156,
      "1937": 4157,
      "support": 4158,
      "Claudi": 4159,
      "likely": 4160,
      "Shepp": 4161,
      "fourth": 4162,
      "Genesis": 4163,
      "guardi": 4164,
      "operators": 4165,
      "pursu": 4166,
      "purpose": 4167,
      "indicated": 4168,
      "strip": 4169,
      "starting": 4170,
      "musician": 4171,
      "musicians": 4172,
      "layers": 4173,
      "connected": 4174,
      "college": 4175,
      "Blake": 4176,
      "Trust": 4177,
      "organizing": 4178,
      "1959": 4179,
      "differential": 4180,
      "Whit": 4181,
      "reduce": 4182,
      "America": 4183,
      "Kilindi": 4184,
      "marked": 4185,
      "markets": 4186,
      "ometric": 4187,
      "showed": 4188,
      "carb": 4189,
      "investment": 4190,
      "incorporating": 4191,
      "topology": 4192,
      "Among": 4193,
      "Goals": 4194,
      "planning": 4195,
      "ressed": 4196,
      "Stephen": 4197,
      "Stewart": 4198,
      "effort": 4199,
      "studio": 4200,
      "1943": 4201,
      "tracking": 4202,
      "communities": 4203,
      "bitter": 4204,
      "animal": 4205,
      "issue": 4206,
      "Month": 4207,
      "equity": 4208,
      "equations": 4209,
      "margin": 4210,
      "definition": 4211,
      "protected": 4212,
      "advanced": 4213,
      "1886": 4214,
      "visiting": 4215,
      "authority": 4216,
      "authorities": 4217,
      "footballer": 4218,
      "appears": 4219,
      "characters": 4220,
      "TVIN": 4221,
      "botany": 4222,
      "label": 4223,
      "increase": 4224,
      "competed": 4225,
      "covering": 4226,
      "Morris": 4227,
      "Processor": 4228,
      "killed": 4229,
      "otswana": 4230,
      "nearly": 4231,
      "1897": 4232,
      "generate": 4233,
      "archaeological": 4234,
      "Islamic": 4235,
      "obtained": 4236,
      "Brothers": 4237,
      "Terminator": 4238,
      "hours": 4239,
      "hosla": 4240,
      "paint": 4241,
      "sides": 4242,
      "learning": 4243,
      "debuted": 4244,
      "1903": 4245,
      "shares": 4246,
      "professor": 4247,
      "colony": 4248,
      "architectures": 4249,
      "Centrair": 4250,
      "France": 4251,
      "Kenyan": 4252,
      "cases": 4253,
      "casion": 4254,
      "duties": 4255,
      "starts": 4256,
      "emerging": 4257,
      "models": 4258,
      "option": 4259,
      "aught": 4260,
      "previously": 4261,
      "purchase": 4262,
      "melody": 4263,
      "Philby": 4264,
      "Philadel": 4265,
      "División": 4266,
      "Jesús": 4267,
      "Viswema": 4268,
      "intelligence": 4269,
      "remedies": 4270,
      "trusts": 4271,
      "featured": 4272,
      "programmable": 4273,
      "communication": 4274,
      "graduated": 4275,
      "algorithms": 4276,
      "Swan": 4277,
      "double": 4278,
      "picking": 4279,
      "teenth": 4280,
      "computing": 4281,
      "featuring": 4282,
      "Researchers": 4283,
      "engineering": 4284,
      "Captain": 4285,
      "Capital": 4286,
      "Finally": 4287,
      "Garden": 4288,
      "Gardens": 4289,
      "ICL": 4290,
      "Korea": 4291,
      "Overseas": 4292,
      "junior": 4293,
      "target": 4294,
      "volume": 4295,
      "islanders": 4296,
      "Christian": 4297,
      "goods": 4298,
      "physical": 4299,
      "polyurethan": 4300,
      "policy": 4301,
      "policies": 4302,
      "simulating": 4303,
      "Ukraine": 4304,
      "Ukrainian": 4305,
      "Burg": 4306,
      "Crown": 4307,
      "Cathy": 4308,
      "Grand": 4309,
      "Hobie": 4310,
      "Kimweri": 4311,
      "Michael": 4312,
      "Notable": 4313,
      "Sila": 4314,
      "Vietnam": 4315,
      "easily": 4316,
      "globally": 4317,
      "human": 4318,
      "paper": 4319,
      "wearing": 4320,
      "stores": 4321,
      "vehicles": 4322,
      "important": 4323,
      "territory": 4324,
      "financing": 4325,
      "website": 4326,
      "Afghans": 4327,
      "Service": 4328,
      "Surfboard": 4329,
      "subsidiary": 4330,
      "Botanical": 4331,
      "Falchuk": 4332,
      "Foreign": 4333,
      "Gaikai": 4334,
      "Lincoln": 4335,
      "MOAs": 4336,
      "People": 4337,
      "Peninsula": 4338,
      "Russian": 4339,
      "VID": 4340,
      "dimensions": 4341,
      "funded": 4342,
      "highest": 4343,
      "murals": 4344,
      "pipeline": 4345,
      "initial": 4346,
      "better": 4347,
      "exhib": 4348,
      "estimated": 4349,
      "Street": 4350,
      "libraries": 4351,
      "scheduled": 4352,
      "transferred": 4353,
      "approximately": 4354,
      "Soviets": 4355,
      "Computers": 4356,
      "citizens": 4357,
      "algorithmically": 4358,
      "apprentice": 4359,
      "philosophy": 4360,
      "Athens": 4361,
      "Drive": 4362,
      "Flyers": 4363,
      "IAEA": 4364,
      "Jeff": 4365,
      "Kazakh": 4366,
      "Louis": 4367,
      "Ohga": 4368,
      "Portsmouth": 4369,
      "WCPO": 4370,
      "housing": 4371,
      "mutual": 4372,
      "sensory": 4373,
      "innovation": 4374,
      "reached": 4375,
      "demonstrate": 4376,
      "across": 4377,
      "consumption": 4378,
      "etamine": 4379,
      "exclusive": 4380,
      "manufact": 4381,
      "fiberglass": 4382,
      "doctorate": 4383,
      "supposedly": 4384,
      "Original": 4385,
      "traditional": 4386,
      "Georgia": 4387,
      "Alexand": 4388,
      "obligations": 4389,
      "B3397": 4390,
      "Ecuador": 4391,
      "Fowler": 4392,
      "FPGA": 4393,
      "Kansas": 4394,
      "Kitui": 4395,
      "Ltd": 4396,
      "Laguna": 4397,
      "Livingston": 4398,
      "Mandel": 4399,
      "Miguel": 4400,
      "Olymp": 4401,
      "Pacesetter": 4402,
      "mammalian": 4403,
      "pneumatic": 4404,
      "tvN": 4405,
      "orchestra": 4406,
      "tobacco": 4407,
      "determine": 4408,
      "chosen": 4409,
      "agriculture": 4410,
      "commentary": 4411,
      "commercial": 4412,
      "clesiastical": 4413,
      "permanent": 4414,
      "Chinese": 4415,
      "Assistant": 4416,
      "parallel": 4417,
      "techniques": 4418,
      "Claudius": 4419,
      "TVING": 4420,
      "Philadelphia": 4421,
      "polyurethane": 4422,
      "\"[": 4423,
      "%.[": 4424,
      "321": 4425,
      "325": 4426,
      "46": 4427,
      "4K": 4428,
      "56": 4429,
      "557": 4430,
      "66": 4431,
      "71": 4432,
      "83": 4433,
      "84": 4434,
      "800": 4435,
      "91": 4436,
      "93": 4437,
      "97": 4438,
      ";[": 4439,
      "Ast": 4440,
      "Age": 4441,
      "APG": 4442,
      "Bou": 4443,
      "Bol": 4444,
      "Bet": 4445,
      "Bra": 4446,
      "Back": 4447,
      "Brian": 4448,
      "Botswana": 4449,
      "CC": 4450,
      "CL": 4451,
      "Cas": 4452,
      "Chen": 4453,
      "CFL": 4454,
      "Crip": 4455,
      "Da": 4456,
      "Do": 4457,
      "Dark": 4458,
      "Diction": 4459,
      "Ei": 4460,
      "Er": 4461,
      "Ele": 4462,
      "Eye": 4463,
      "Far": 4464,
      "Fri": 4465,
      "Five": 4466,
      "Fau": 4467,
      "Flow": 4468,
      "Found": 4469,
      "Fund": 4470,
      "Focus": 4471,
      "GP": 4472,
      "GR": 4473,
      "Gh": 4474,
      "Gur": 4475,
      "Greg": 4476,
      "Gabl": 4477,
      "Given": 4478,
      "Hy": 4479,
      "Han": 4480,
      "Hand": 4481,
      "Hun": 4482,
      "Hay": 4483,
      "Hel": 4484,
      "Hong": 4485,
      "Hour": 4486,
      "IT": 4487,
      "Il": 4488,
      "Jen": 4489,
      "Jam": 4490,
      "Jord": 4491,
      "Journal": 4492,
      "Jihad": 4493,
      "Kn": 4494,
      "Kal": 4495,
      "Kong": 4496,
      "Kiss": 4497,
      "Kirk": 4498,
      "Ls": 4499,
      "Lu": 4500,
      "Land": 4501,
      "Lad": 4502,
      "Lith": 4503,
      "List": 4504,
      "Last": 4505,
      "Long": 4506,
      "Loc": 4507,
      "Lev": 4508,
      "Lake": 4509,
      "My": 4510,
      "Mir": 4511,
      "Mad": 4512,
      "Mut": 4513,
      "Mem": 4514,
      "More": 4515,
      "Mult": 4516,
      "Maj": 4517,
      "Morgan": 4518,
      "Milt": 4519,
      "Master": 4520,
      "Myr": 4521,
      "Mull": 4522,
      "Ny": 4523,
      "Nal": 4524,
      "Nar": 4525,
      "Nic": 4526,
      "Nig": 4527,
      "Nations": 4528,
      "Never": 4529,
      "Od": 4530,
      "Om": 4531,
      "Oce": 4532,
      "Oper": 4533,
      "PI": 4534,
      "PL": 4535,
      "Pl": 4536,
      "Pal": 4537,
      "Pers": 4538,
      "Pop": 4539,
      "Press": 4540,
      "RL": 4541,
      "RM": 4542,
      "Ry": 4543,
      "Rab": 4544,
      "Rust": 4545,
      "Rico": 4546,
      "Radio": 4547,
      "Ryan": 4548,
      "Sen": 4549,
      "Sun": 4550,
      "Sem": 4551,
      "Sang": 4552,
      "Sports": 4553,
      "Sveen": 4554,
      "Sciences": 4555,
      "Soga": 4556,
      "TM": 4557,
      "Ty": 4558,
      "Tan": 4559,
      "Tig": 4560,
      "Tex": 4561,
      "Tak": 4562,
      "Top": 4563,
      "Turing": 4564,
      "Ul": 4565,
      "UCL": 4566,
      "VY": 4567,
      "Vent": 4568,
      "Vase": 4569,
      "Vision": 4570,
      "Wet": 4571,
      "Wong": 4572,
      "Wash": 4573,
      "Wales": 4574,
      "XI": 4575,
      "Yates": 4576,
      "Zay": 4577,
      "ao": 4578,
      "ade": 4579,
      "abe": 4580,
      "aur": 4581,
      "bin": 4582,
      "ben": 4583,
      "bes": 4584,
      "bid": 4585,
      "bul": 4586,
      "bark": 4587,
      "burn": 4588,
      "bank": 4589,
      "balsa": 4590,
      "cand": 4591,
      "cation": 4592,
      "cir": 4593,
      "cow": 4594,
      "cate": 4595,
      "ched": 4596,
      "cise": 4597,
      "cular": 4598,
      "caster": 4599,
      "cichl": 4600,
      "dan": 4601,
      "dro": 4602,
      "dub": 4603,
      "doc": 4604,
      "draft": 4605,
      "dram": 4606,
      "dream": 4607,
      "duration": 4608,
      "ea": 4609,
      "eur": 4610,
      "fif": 4611,
      "fight": 4612,
      "figure": 4613,
      "federal": 4614,
      "felt": 4615,
      "gy": 4616,
      "gé": 4617,
      "gun": 4618,
      "gard": 4619,
      "gall": 4620,
      "gment": 4621,
      "gaining": 4622,
      "gained": 4623,
      "gium": 4624,
      "gulu": 4625,
      "girl": 4626,
      "hol": 4627,
      "hill": 4628,
      "hik": 4629,
      "hatt": 4630,
      "harm": 4631,
      "happ": 4632,
      "hills": 4633,
      "hinterland": 4634,
      "ias": 4635,
      "iem": 4636,
      "iates": 4637,
      "ibility": 4638,
      "ken": 4639,
      "kar": 4640,
      "kil": 4641,
      "kotte": 4642,
      "lu": 4643,
      "lab": 4644,
      "labor": 4645,
      "lkotte": 4646,
      "mor": 4647,
      "mal": 4648,
      "mol": 4649,
      "mph": 4650,
      "male": 4651,
      "maps": 4652,
      "molo": 4653,
      "making": 4654,
      "na": 4655,
      "nd": 4656,
      "nic": 4657,
      "nel": 4658,
      "nie": 4659,
      "nick": 4660,
      "native": 4661,
      "ninth": 4662,
      "ov": 4663,
      "oil": 4664,
      "oid": 4665,
      "oeth": 4666,
      "pan": 4667,
      "ped": 4668,
      "pic": 4669,
      "pil": 4670,
      "pse": 4671,
      "pun": 4672,
      "pus": 4673,
      "pub": 4674,
      "pian": 4675,
      "pack": 4676,
      "pup": 4677,
      "pai": 4678,
      "pandem": 4679,
      "pione": 4680,
      "rig": 4681,
      "rare": 4682,
      "rical": 4683,
      "rust": 4684,
      "rup": 4685,
      "spl": 4686,
      "sain": 4687,
      "smo": 4688,
      "sight": 4689,
      "site": 4690,
      "skill": 4691,
      "saying": 4692,
      "ta": 4693,
      "tu": 4694,
      "tz": 4695,
      "tion": 4696,
      "tub": 4697,
      "tland": 4698,
      "tandem": 4699,
      "tunda": 4700,
      "taught": 4701,
      "ued": 4702,
      "uct": 4703,
      "uated": 4704,
      "uous": 4705,
      "van": 4706,
      "von": 4707,
      "vard": 4708,
      "vast": 4709,
      "vine": 4710,
      "vant": 4711,
      "volution": 4712,
      "vampires": 4713,
      "wat": 4714,
      "wed": 4715,
      "wom": 4716,
      "ware": 4717,
      "yach": 4718,
      "youth": 4719,
      "zan": 4720,
      "zon": 4721,
      "zzy": 4722,
      "Öst": 4723,
      "érica": 4724,
      "ín": 4725,
      "ötland": 4726,
      "hect": 4727,
      "heart": 4728,
      "ini": 4729,
      "inform": 4730,
      "inated": 4731,
      "inau": 4732,
      "instr": 4733,
      "anau": 4734,
      "anthem": 4735,
      "anley": 4736,
      "ancy": 4737,
      "thel": 4738,
      "onae": 4739,
      "online": 4740,
      "erve": 4741,
      "erable": 4742,
      "rea": 4743,
      "ref": 4744,
      "rez": 4745,
      "rebe": 4746,
      "reve": 4747,
      "repor": 4748,
      "reach": 4749,
      "report": 4750,
      "repres": 4751,
      "remove": 4752,
      "replaced": 4753,
      "rebel": 4754,
      "atial": 4755,
      "atures": 4756,
      "attract": 4757,
      "atives": 4758,
      "orge": 4759,
      "orida": 4760,
      "edy": 4761,
      "eder": 4762,
      "eden": 4763,
      "edge": 4764,
      "aled": 4765,
      "although": 4766,
      "altar": 4767,
      "already": 4768,
      "enh": 4769,
      "eni": 4770,
      "stor": 4771,
      "stors": 4772,
      "store": 4773,
      "stays": 4774,
      "stake": 4775,
      "static": 4776,
      "stock": 4777,
      "arg": 4778,
      "ars": 4779,
      "arid": 4780,
      "arise": 4781,
      "army": 4782,
      "ands": 4783,
      "itt": 4784,
      "iter": 4785,
      "itive": 4786,
      "asse": 4787,
      "isl": 4788,
      "isation": 4789,
      "isclosed": 4790,
      "iced": 4791,
      "icide": 4792,
      "icago": 4793,
      "rout": 4794,
      "roll": 4795,
      "rotunda": 4796,
      "too": 4797,
      "topl": 4798,
      "total": 4799,
      "leman": 4800,
      "lebr": 4801,
      "league": 4802,
      "levard": 4803,
      "oul": 4804,
      "thing": 4805,
      "thur": 4806,
      "amil": 4807,
      "ambassador": 4808,
      "ille": 4809,
      "entum": 4810,
      "ential": 4811,
      "dead": 4812,
      "dell": 4813,
      "deep": 4814,
      "deck": 4815,
      "deeper": 4816,
      "developer": 4817,
      "demand": 4818,
      "account": 4819,
      "forts": 4820,
      "sey": 4821,
      "seed": 4822,
      "sele": 4823,
      "sects": 4824,
      "segment": 4825,
      "omena": 4826,
      "olic": 4827,
      "olutions": 4828,
      "iri": 4829,
      "irit": 4830,
      "behalf": 4831,
      "belie": 4832,
      "lyrical": 4833,
      "uride": 4834,
      "urban": 4835,
      "igo": 4836,
      "igan": 4837,
      "igures": 4838,
      "proced": 4839,
      "protest": 4840,
      "provid": 4841,
      "proposed": 4842,
      "project": 4843,
      "conc": 4844,
      "connet": 4845,
      "conserv": 4846,
      "confront": 4847,
      "consult": 4848,
      "unknown": 4849,
      "unlike": 4850,
      "undivided": 4851,
      "ading": 4852,
      "adop": 4853,
      "adoption": 4854,
      "imb": 4855,
      "images": 4856,
      "teach": 4857,
      "tective": 4858,
      "teachers": 4859,
      "tery": 4860,
      "cel": 4861,
      "ceed": 4862,
      "celebr": 4863,
      "1900": 4864,
      "ayer": 4865,
      "ayne": 4866,
      "ayama": 4867,
      "aga": 4868,
      "agg": 4869,
      "agents": 4870,
      "agues": 4871,
      "aggress": 4872,
      "20th": 4873,
      "2025": 4874,
      "idi": 4875,
      "ides": 4876,
      "iders": 4877,
      "aret": 4878,
      "etic": 4879,
      "otage": 4880,
      "verb": 4881,
      "verse": 4882,
      "verton": 4883,
      "istan": 4884,
      "elanau": 4885,
      "comic": 4886,
      "plann": 4887,
      "suits": 4888,
      "Information": 4889,
      "Instit": 4890,
      "eman": 4891,
      "emul": 4892,
      "ements": 4893,
      "loa": 4894,
      "love": 4895,
      "loyal": 4896,
      "shi": 4897,
      "shrub": 4898,
      "rie": 4899,
      "river": 4900,
      "pete": 4901,
      "need": 4902,
      "diag": 4903,
      "diffic": 4904,
      "divor": 4905,
      "rescent": 4906,
      "resort": 4907,
      "resigned": 4908,
      "artwork": 4909,
      "soon": 4910,
      "umb": 4911,
      "ump": 4912,
      "umin": 4913,
      "exile": 4914,
      "extract": 4915,
      "expected": 4916,
      "cipl": 4917,
      "climb": 4918,
      "pertain": 4919,
      "trained": 4920,
      "ateur": 4921,
      "illian": 4922,
      "alling": 4923,
      "body": 4924,
      "quant": 4925,
      "quality": 4926,
      "quiem": 4927,
      "CNNs": 4928,
      "earli": 4929,
      "earned": 4930,
      "formal": 4931,
      "amele": 4932,
      "dual": 4933,
      "dule": 4934,
      "ipur": 4935,
      "ianae": 4936,
      "word": 4937,
      "worm": 4938,
      "ighty": 4939,
      "rather": 4940,
      "rastructure": 4941,
      "firmed": 4942,
      "compared": 4943,
      "endants": 4944,
      "endangered": 4945,
      "owns": 4946,
      "cannot": 4947,
      "opport": 4948,
      "180": 4949,
      "1862": 4950,
      "ivia": 4951,
      "ivities": 4952,
      "asses": 4953,
      "estic": 4954,
      "workers": 4955,
      "upper": 4956,
      "Heart": 4957,
      "Heaven": 4958,
      "management": 4959,
      "antic": 4960,
      "antime": 4961,
      "Stat": 4962,
      "Stanley": 4963,
      "creators": 4964,
      "Ant": 4965,
      "Anton": 4966,
      "Child": 4967,
      "China": 4968,
      "Champions": 4969,
      "Chicago": 4970,
      "osa": 4971,
      "osy": 4972,
      "surv": 4973,
      "surger": 4974,
      "braltar": 4975,
      "brillian": 4976,
      "keeper": 4977,
      "afford": 4978,
      "affirmed": 4979,
      "meantime": 4980,
      "prof": 4981,
      "price": 4982,
      "prising": 4983,
      "whether": 4984,
      "izations": 4985,
      "mineral": 4986,
      "achora": 4987,
      "tying": 4988,
      "ango": 4989,
      "anger": 4990,
      "102": 4991,
      "107": 4992,
      "prefer": 4993,
      "preval": 4994,
      "predic": 4995,
      "speak": 4996,
      "finite": 4997,
      "viation": 4998,
      "code": 4999,
      "coach": 5000,
      "cock": 5001,
      "feral": 5002,
      "serial": 5003,
      "Arts": 5004,
      "Arthur": 5005,
      "Alto": 5006,
      "Alger": 5007,
      "Alene": 5008,
      "Alloa": 5009,
      "interview": 5010,
      "interior": 5011,
      "interaction": 5012,
      "intersects": 5013,
      "mont": 5014,
      "monaster": 5015,
      "rence": 5016,
      "renamed": 5017,
      "occasion": 5018,
      "partially": 5019,
      "partner": 5020,
      "grand": 5021,
      "lied": 5022,
      "mermaid": 5023,
      "merianae": 5024,
      "metry": 5025,
      "plays": 5026,
      "correct": 5027,
      "corpse": 5028,
      "genetic": 5029,
      "Spot": 5030,
      "Spatial": 5031,
      "1618": 5032,
      "going": 5033,
      "spark": 5034,
      "medal": 5035,
      "Joaqu": 5036,
      "itionally": 5037,
      "eval": 5038,
      "ideen": 5039,
      "ancestors": 5040,
      "locations": 5041,
      "color": 5042,
      "rican": 5043,
      "ricts": 5044,
      "poses": 5045,
      "possi": 5046,
      "positions": 5047,
      "possible": 5048,
      "intended": 5049,
      "1739": 5050,
      "Associ": 5051,
      "Asadi": 5052,
      "newly": 5053,
      "phy": 5054,
      "phic": 5055,
      "themes": 5056,
      "undisclosed": 5057,
      "Decca": 5058,
      "Detective": 5059,
      "flights": 5060,
      "flaps": 5061,
      "ween": 5062,
      "weight": 5063,
      "wealth": 5064,
      "1970": 5065,
      "1978": 5066,
      "identified": 5067,
      "display": 5068,
      "disease": 5069,
      "discipl": 5070,
      "religious": 5071,
      "reluct": 5072,
      "shaped": 5073,
      "iece": 5074,
      "therefore": 5075,
      "128": 5076,
      "Hamburg": 5077,
      "rank": 5078,
      "1980": 5079,
      "1984": 5080,
      "ilding": 5081,
      "Leelanau": 5082,
      "Sega": 5083,
      "Seuta": 5084,
      "ario": 5085,
      "1966": 5086,
      "1960s": 5087,
      "ultane": 5088,
      "Conference": 5089,
      "sche": 5090,
      "scri": 5091,
      "score": 5092,
      "scale": 5093,
      "office": 5094,
      "Perth": 5095,
      "Perera": 5096,
      "Perachora": 5097,
      "ships": 5098,
      "Shop": 5099,
      "release": 5100,
      "relevant": 5101,
      "Cordero": 5102,
      "Malga": 5103,
      "passes": 5104,
      "value": 5105,
      "mostly": 5106,
      "African": 5107,
      "Comm": 5108,
      "Comput": 5109,
      "capt": 5110,
      "follows": 5111,
      "growing": 5112,
      "poll": 5113,
      "attles": 5114,
      "encing": 5115,
      "encour": 5116,
      "helped": 5117,
      "Minerals": 5118,
      "ictor": 5119,
      "product": 5120,
      "produci": 5121,
      "designs": 5122,
      "designing": 5123,
      "designated": 5124,
      "simulation": 5125,
      "simultane": 5126,
      "resembl": 5127,
      "Isle": 5128,
      "Newport": 5129,
      "Newton": 5130,
      "Requiem": 5131,
      "gins": 5132,
      "memory": 5133,
      "membran": 5134,
      "arrive": 5135,
      "expanded": 5136,
      "Because": 5137,
      "Bethel": 5138,
      "aho": 5139,
      "allows": 5140,
      "Johnson": 5141,
      "frag": 5142,
      "linked": 5143,
      "lineman": 5144,
      "sons": 5145,
      "consol": 5146,
      "consists": 5147,
      "footh": 5148,
      "larger": 5149,
      "submit": 5150,
      "Atari": 5151,
      "Attic": 5152,
      "Norway": 5153,
      "Prim": 5154,
      "lawyer": 5155,
      "maintain": 5156,
      "258": 5157,
      "causes": 5158,
      "district": 5159,
      "districts": 5160,
      "full": 5161,
      "network": 5162,
      "supplement": 5163,
      "supply": 5164,
      "supported": 5165,
      "supplied": 5166,
      "Boys": 5167,
      "Note": 5168,
      "Scotland": 5169,
      "airo": 5170,
      "ches": 5171,
      "chez": 5172,
      "millions": 5173,
      "cellular": 5174,
      "operating": 5175,
      "purposes": 5176,
      "strial": 5177,
      "ergötland": 5178,
      "connect": 5179,
      "booklet": 5180,
      "collections": 5181,
      "collective": 5182,
      "Ord": 5183,
      "Order": 5184,
      "Training": 5185,
      "Wars": 5186,
      "motor": 5187,
      "motiv": 5188,
      "poned": 5189,
      "singer": 5190,
      "singles": 5191,
      "organization": 5192,
      "1950": 5193,
      "1951": 5194,
      "1957": 5195,
      "Who": 5196,
      "What": 5197,
      "White": 5198,
      "alongside": 5199,
      "array": 5200,
      "setup": 5201,
      "setting": 5202,
      "Coeur": 5203,
      "Country": 5204,
      "Kilonz": 5205,
      "domestic": 5206,
      "election": 5207,
      "eleph": 5208,
      "lamin": 5209,
      "prior": 5210,
      "taking": 5211,
      "letics": 5212,
      "detecting": 5213,
      "ometres": 5214,
      "becomes": 5215,
      "viewers": 5216,
      "Malaysian": 5217,
      "Neger": 5218,
      "Reserve": 5219,
      "cars": 5220,
      "carry": 5221,
      "listing": 5222,
      "longer": 5223,
      "powers": 5224,
      "recru": 5225,
      "recording": 5226,
      "recordings": 5227,
      "statistics": 5228,
      "popular": 5229,
      "América": 5230,
      "Elder": 5231,
      "GoVY": 5232,
      "Olivia": 5233,
      "styles": 5234,
      "plane": 5235,
      "ography": 5236,
      "dynamic": 5237,
      "Manhatt": 5238,
      "Manipur": 5239,
      "backed": 5240,
      "crop": 5241,
      "ecosy": 5242,
      "efforts": 5243,
      "solve": 5244,
      "tourists": 5245,
      "1940": 5246,
      "1948": 5247,
      "placing": 5248,
      "tracks": 5249,
      "Article": 5250,
      "Arturo": 5251,
      "governing": 5252,
      "community": 5253,
      "researched": 5254,
      "runs": 5255,
      "industrial": 5256,
      "standard": 5257,
      "issues": 5258,
      "awards": 5259,
      "goalkeeper": 5260,
      "officer": 5261,
      "offices": 5262,
      "microcontroll": 5263,
      "recognized": 5264,
      "recognised": 5265,
      "Loss": 5266,
      "Monday": 5267,
      "Point": 5268,
      "Roska": 5269,
      "marine": 5270,
      "marinas": 5271,
      "protect": 5272,
      "advice": 5273,
      "railway": 5274,
      "Queens": 5275,
      "botanist": 5276,
      "garian": 5277,
      "mujah": 5278,
      "rising": 5279,
      "titled": 5280,
      "virt": 5281,
      "computers": 5282,
      "Keith": 5283,
      "Keeper": 5284,
      "Morocco": 5285,
      "Province": 5286,
      "killer": 5287,
      "confirm": 5288,
      "conflicts": 5289,
      "shortly": 5290,
      "formerly": 5291,
      "ippines": 5292,
      "generally": 5293,
      "archaeology": 5294,
      "Mariannes": 5295,
      "habitats": 5296,
      "traveling": 5297,
      "Billy": 5298,
      "Santhus": 5299,
      "Sanchez": 5300,
      "Terry": 5301,
      "Territ": 5302,
      "basic": 5303,
      "learn": 5304,
      "1904": 5305,
      "combine": 5306,
      "combined": 5307,
      "combination": 5308,
      "movement": 5309,
      "AnaFocus": 5310,
      "spatial": 5311,
      "colonel": 5312,
      "participated": 5313,
      "Athol": 5314,
      "Buick": 5315,
      "Building": 5316,
      "Central": 5317,
      "Fraser": 5318,
      "Kenya": 5319,
      "rule": 5320,
      "references": 5321,
      "stars": 5322,
      "declared": 5323,
      "declined": 5324,
      "conduct": 5325,
      "classification": 5326,
      "modeling": 5327,
      "options": 5328,
      "mathematics": 5329,
      "mathematically": 5330,
      "synd": 5331,
      "synthes": 5332,
      "synchron": 5333,
      "consisted": 5334,
      "consistent": 5335,
      "arrangement": 5336,
      "militia": 5337,
      "Philippines": 5338,
      "Again": 5339,
      "Agnes": 5340,
      "Agreement": 5341,
      "Bert": 5342,
      "Born": 5343,
      "Dracul": 5344,
      "Disney": 5345,
      "ESCO": 5346,
      "George": 5347,
      "couple": 5348,
      "sense": 5349,
      "yeong": 5350,
      "represented": 5351,
      "associations": 5352,
      "platforms": 5353,
      "exceptions": 5354,
      "poems": 5355,
      "mechanical": 5356,
      "contributed": 5357,
      "translation": 5358,
      "translated": 5359,
      "graduate": 5360,
      "relationships": 5361,
      "Chaos": 5362,
      "Like": 5363,
      "Sweden": 5364,
      "brother": 5365,
      "drives": 5366,
      "koa": 5367,
      "trees": 5368,
      "tremolo": 5369,
      "administration": 5370,
      "administrative": 5371,
      "explo": 5372,
      "exploration": 5373,
      "computational": 5374,
      "episodes": 5375,
      "Constitu": 5376,
      "framework": 5377,
      "distinction": 5378,
      "investigations": 5379,
      "Archaeological": 5380,
      "Belgium": 5381,
      "Harman": 5382,
      "Korean": 5383,
      "Tamil": 5384,
      "Valley": 5385,
      "flowers": 5386,
      "sources": 5387,
      "anistan": 5388,
      "reviews": 5389,
      "attempts": 5390,
      "attempted": 5391,
      "organs": 5392,
      "environment": 5393,
      "environmental": 5394,
      "exemption": 5395,
      "quarters": 5396,
      "interconnect": 5397,
      "lieutenant": 5398,
      "missed": 5399,
      "missile": 5400,
      "fficient": 5401,
      "template": 5402,
      "electro": 5403,
      "electron": 5404,
      "Frankish": 5405,
      "Biography": 5406,
      "Catholic": 5407,
      "Lawrence": 5408,
      "Milstein": 5409,
      "Silverton": 5410,
      "Wayne": 5411,
      "friend": 5412,
      "friends": 5413,
      "failed": 5414,
      "global": 5415,
      "restaur": 5416,
      "straight": 5417,
      "thruster": 5418,
      "departure": 5419,
      "vehicle": 5420,
      "importance": 5421,
      "territories": 5422,
      "suffering": 5423,
      "existing": 5424,
      "financial": 5425,
      "collabor": 5426,
      "discus": 5427,
      "valued": 5428,
      "Afghanistan": 5429,
      "considerable": 5430,
      "considerably": 5431,
      "Premiership": 5432,
      "jurisdictions": 5433,
      "Surfboards": 5434,
      "subsidiaries": 5435,
      "Bathiya": 5436,
      "COVID": 5437,
      "Florida": 5438,
      "Fox": 5439,
      "Football": 5440,
      "Limited": 5441,
      "Mexican": 5442,
      "Mexico": 5443,
      "ULBI": 5444,
      "UNESCO": 5445,
      "Venerable": 5446,
      "Volleyball": 5447,
      "copies": 5448,
      "critics": 5449,
      "machines": 5450,
      "scientific": 5451,
      "vocals": 5452,
      "devices": 5453,
      "defeated": 5454,
      "proposal": 5455,
      "ottelkotte": 5456,
      "plugged": 5457,
      "neighbor": 5458,
      "negoti": 5459,
      "negotiate": 5460,
      "personal": 5461,
      "1853": 5462,
      "assistance": 5463,
      "branch": 5464,
      "monitoring": 5465,
      "analyze": 5466,
      "involving": 5467,
      "involves": 5468,
      "Basque": 5469,
      "Gibraltar": 5470,
      "Getis": 5471,
      "Mermaid": 5472,
      "Munsch": 5473,
      "Machines": 5474,
      "Prior": 5475,
      "SDG": 5476,
      "Super": 5477,
      "Satan": 5478,
      "Schottelkotte": 5479,
      "cabinet": 5480,
      "cured": 5481,
      "course": 5482,
      "carriage": 5483,
      "fuzzy": 5484,
      "favor": 5485,
      "greater": 5486,
      "hardware": 5487,
      "infrastructure": 5488,
      "anesthesi": 5489,
      "alaia": 5490,
      "thirty": 5491,
      "academic": 5492,
      "separate": 5493,
      "probably": 5494,
      "prototype": 5495,
      "promising": 5496,
      "changes": 5497,
      "utilized": 5498,
      "emergency": 5499,
      "reserves": 5500,
      "respectively": 5501,
      "allenge": 5502,
      "1876": 5503,
      "manuscript": 5504,
      "credited": 5505,
      "surveyed": 5506,
      "surrounded": 5507,
      "Albany": 5508,
      "symmetry": 5509,
      "Colombo": 5510,
      "joining": 5511,
      "distributed": 5512,
      "Transport": 5513,
      "effectively": 5514,
      "Francisco": 5515,
      "Montreal": 5516,
      "advantages": 5517,
      "Additionally": 5518,
      "Mathematics": 5519,
      "Browne": 5520,
      "flexible": 5521,
      "suspended": 5522,
      "Acade": 5523,
      "Cardinal": 5524,
      "Cecil": 5525,
      "Dotga": 5526,
      "Dodonae": 5527,
      "Hockey": 5528,
      "Idaho": 5529,
      "Jacob": 5530,
      "Ligue": 5531,
      "Oslo": 5532,
      "Office": 5533,
      "Playboy": 5534,
      "Summer": 5535,
      "Telluride": 5536,
      "Villamil": 5537,
      "billion": 5538,
      "calc": 5539,
      "custom": 5540,
      "festival": 5541,
      "ienne": 5542,
      "message": 5543,
      "mistake": 5544,
      "pipe": 5545,
      "paleoeth": 5546,
      "task": 5547,
      "ticket": 5548,
      "victory": 5549,
      "theoretical": 5550,
      "remote": 5551,
      "alternate": 5552,
      "arbitrary": 5553,
      "veteran": 5554,
      "consequence": 5555,
      "plains": 5556,
      "achieved": 5557,
      "Albums": 5558,
      "descendants": 5559,
      "Development": 5560,
      "guardians": 5561,
      "carbon": 5562,
      "Burgesses": 5563,
      "Crowns": 5564,
      "Kazakhstan": 5565,
      "Olympics": 5566,
      "Boulevard": 5567,
      "Between": 5568,
      "Cripple": 5569,
      "Dictionary": 5570,
      "Eibar": 5571,
      "Eleven": 5572,
      "Fauconnet": 5573,
      "Ghats": 5574,
      "Guridi": 5575,
      "Gregor": 5576,
      "Gabler": 5577,
      "Hanover": 5578,
      "Helena": 5579,
      "Jamie": 5580,
      "Jordan": 5581,
      "Luis": 5582,
      "Lady": 5583,
      "Lithuan": 5584,
      "Levitt": 5585,
      "Major": 5586,
      "Myrtle": 5587,
      "Mullen": 5588,
      "Nalin": 5589,
      "Ocean": 5590,
      "Operators": 5591,
      "Rusty": 5592,
      "Tanzan": 5593,
      "Texas": 5594,
      "Takayama": 5595,
      "Ventures": 5596,
      "Wongyeong": 5597,
      "Washington": 5598,
      "Zayday": 5599,
      "benef": 5600,
      "cichlid": 5601,
      "kilometres": 5602,
      "pupil": 5603,
      "paipo": 5604,
      "pandemic": 5605,
      "split": 5606,
      "women": 5607,
      "Östergötland": 5608,
      "inaug": 5609,
      "represents": 5610,
      "topless": 5611,
      "provides": 5612,
      "aggressive": 5613,
      "planned": 5614,
      "Institute": 5615,
      "opportunity": 5616,
      "surgery": 5617,
      "predicted": 5618,
      "cockpit": 5619,
      "monastery": 5620,
      "Joaquín": 5621,
      "Computations": 5622,
      "simultaneously": 5623,
      "membranous": 5624,
      "foothills": 5625,
      "Kilonzo": 5626,
      "Negeri": 5627,
      "recruited": 5628,
      "GoVYRL": 5629,
      "Manhattan": 5630,
      "mujahideen": 5631,
      "Santhush": 5632,
      "Dracula": 5633,
      "Dodonaea": 5634,
      "paleoethno": 5635,
      "Tanzania": 5636,
      "\").": 5637,
      "',": 5638,
      "'.": 5639,
      "'.[": 5640,
      "(>": 5641,
      ");": 5642,
      "--": 5643,
      ".'": 5644,
      "04": 5645,
      "120": 5646,
      "110": 5647,
      "330": 5648,
      "380": 5649,
      "442": 5650,
      "54": 5651,
      "58": 5652,
      "59": 5653,
      "5th": 5654,
      "65": 5655,
      "69": 5656,
      "661": 5657,
      "73": 5658,
      "79": 5659,
      "715": 5660,
      "81": 5661,
      "86": 5662,
      "87": 5663,
      "817": 5664,
      "98": 5665,
      "99": 5666,
      "AP": 5667,
      "AS": 5668,
      "Ak": 5669,
      "Av": 5670,
      "Aer": 5671,
      "Ate": 5672,
      "Aud": 5673,
      "Ama": 5674,
      "Aren": 5675,
      "Apart": 5676,
      "Away": 5677,
      "Award": 5678,
      "Aven": 5679,
      "Aird": 5680,
      "Aviation": 5681,
      "BL": 5682,
      "Ban": 5683,
      "Bal": 5684,
      "Bion": 5685,
      "Bac": 5686,
      "Bad": 5687,
      "Bag": 5688,
      "Bri": 5689,
      "Bul": 5690,
      "Bear": 5691,
      "Bif": 5692,
      "Bry": 5693,
      "Bout": 5694,
      "Bair": 5695,
      "Bell": 5696,
      "Bern": 5697,
      "Bah": 5698,
      "Bob": 5699,
      "Bank": 5700,
      "Berg": 5701,
      "Bram": 5702,
      "Bright": 5703,
      "Ca": 5704,
      "Cin": 5705,
      "Cer": 5706,
      "Cit": 5707,
      "Cub": 5708,
      "Cra": 5709,
      "Cast": 5710,
      "Cher": 5711,
      "Cour": 5712,
      "Caf": 5713,
      "Come": 5714,
      "Cater": 5715,
      "Cool": 5716,
      "Cru": 5717,
      "Cairo": 5718,
      "DP": 5719,
      "Dz": 5720,
      "Dan": 5721,
      "Dam": 5722,
      "Day": 5723,
      "Dann": 5724,
      "Doy": 5725,
      "Dana": 5726,
      "Data": 5727,
      "DMA": 5728,
      "DTC": 5729,
      "Dyn": 5730,
      "Dream": 5731,
      "Danger": 5732,
      "EC": 5733,
      "EE": 5734,
      "ER": 5735,
      "Ec": 5736,
      "Em": 5737,
      "Est": 5738,
      "Each": 5739,
      "Eli": 5740,
      "Esc": 5741,
      "Even": 5742,
      "Emp": 5743,
      "Egy": 5744,
      "FC": 5745,
      "Fé": 5746,
      "Fle": 5747,
      "Fam": 5748,
      "Fab": 5749,
      "Flo": 5750,
      "Fire": 5751,
      "Face": 5752,
      "FSA": 5753,
      "Figure": 5754,
      "Fallen": 5755,
      "GE": 5756,
      "Gy": 5757,
      "Gal": 5758,
      "Gary": 5759,
      "Gold": 5760,
      "Gae": 5761,
      "Gran": 5762,
      "Gern": 5763,
      "Gali": 5764,
      "Gram": 5765,
      "Gork": 5766,
      "Gonz": 5767,
      "Golf": 5768,
      "Ginn": 5769,
      "Gallar": 5770,
      "Ghosla": 5771,
      "Hu": 5772,
      "Hon": 5773,
      "Has": 5774,
      "Hir": 5775,
      "Hig": 5776,
      "How": 5777,
      "Hem": 5778,
      "Hum": 5779,
      "Hill": 5780,
      "Hollow": 5781,
      "Hoy": 5782,
      "Hampton": 5783,
      "Hester": 5784,
      "Hamele": 5785,
      "IG": 5786,
      "Ig": 5787,
      "Ith": 5788,
      "Iron": 5789,
      "Ishi": 5790,
      "JP": 5791,
      "Jim": 5792,
      "Jab": 5793,
      "Jacqu": 5794,
      "Jones": 5795,
      "JBL": 5796,
      "JDMA": 5797,
      "Ka": 5798,
      "Kh": 5799,
      "Ko": 5800,
      "Ky": 5801,
      "Kor": 5802,
      "Kur": 5803,
      "Kel": 5804,
      "Kah": 5805,
      "Khi": 5806,
      "Kwan": 5807,
      "Khosla": 5808,
      "Ketamine": 5809,
      "LS": 5810,
      "Lan": 5811,
      "Lis": 5812,
      "Les": 5813,
      "Liv": 5814,
      "Liz": 5815,
      "Lang": 5816,
      "Lans": 5817,
      "Lie": 5818,
      "Life": 5819,
      "Loth": 5820,
      "LDP": 5821,
      "Mr": 5822,
      "Mé": 5823,
      "Mou": 5824,
      "Mol": 5825,
      "Mim": 5826,
      "Map": 5827,
      "Main": 5828,
      "Mary": 5829,
      "Mass": 5830,
      "Mother": 5831,
      "Mik": 5832,
      "Media": 5833,
      "Mah": 5834,
      "Mountain": 5835,
      "Mode": 5836,
      "Miss": 5837,
      "Money": 5838,
      "MIT": 5839,
      "NH": 5840,
      "NS": 5841,
      "Non": 5842,
      "Nation": 5843,
      "Nine": 5844,
      "Next": 5845,
      "Nona": 5846,
      "NES": 5847,
      "Ngulu": 5848,
      "Ok": 5849,
      "Ost": 5850,
      "Oreg": 5851,
      "Ohi": 5852,
      "PC": 5853,
      "PD": 5854,
      "PR": 5855,
      "PS": 5856,
      "Pu": 5857,
      "Pw": 5858,
      "Pé": 5859,
      "Pan": 5860,
      "Pat": 5861,
      "Pit": 5862,
      "Pic": 5863,
      "Pow": 5864,
      "Pts": 5865,
      "Pres": 5866,
      "Pav": 5867,
      "Player": 5868,
      "Pius": 5869,
      "Payne": 5870,
      "Qad": 5871,
      "Qual": 5872,
      "Ré": 5873,
      "Ran": 5874,
      "Rat": 5875,
      "Rou": 5876,
      "Rol": 5877,
      "Rel": 5878,
      "Rut": 5879,
      "Rem": 5880,
      "Rub": 5881,
      "Rich": 5882,
      "Rif": 5883,
      "Rome": 5884,
      "Rev": 5885,
      "Rever": 5886,
      "Rix": 5887,
      "RUL": 5888,
      "SL": 5889,
      "Sö": 5890,
      "Sin": 5891,
      "Son": 5892,
      "Sal": 5893,
      "Sand": 5894,
      "Sing": 5895,
      "Sam": 5896,
      "Som": 5897,
      "Sad": 5898,
      "Sub": 5899,
      "Sign": 5900,
      "Song": 5901,
      "Saw": 5902,
      "Sev": 5903,
      "Suc": 5904,
      "Salong": 5905,
      "Saul": 5906,
      "Smu": 5907,
      "Sier": 5908,
      "Speci": 5909,
      "Sites": 5910,
      "Sony": 5911,
      "Science": 5912,
      "Skeleton": 5913,
      "Spring": 5914,
      "SJDMA": 5915,
      "Tro": 5916,
      "Tun": 5917,
      "Tay": 5918,
      "Tem": 5919,
      "Tri": 5920,
      "Tip": 5921,
      "Town": 5922,
      "Tran": 5923,
      "Tai": 5924,
      "Tenn": 5925,
      "Tues": 5926,
      "Time": 5927,
      "Ud": 5928,
      "Ug": 5929,
      "Uo": 5930,
      "Up": 5931,
      "U16": 5932,
      "USA": 5933,
      "UTA": 5934,
      "UTO": 5935,
      "Uhur": 5936,
      "Usam": 5937,
      "UTM": 5938,
      "Vo": 5939,
      "Ver": 5940,
      "Vel": 5941,
      "Vain": 5942,
      "Viv": 5943,
      "Vice": 5944,
      "Victor": 5945,
      "WR": 5946,
      "Wa": 5947,
      "Win": 5948,
      "Wel": 5949,
      "Wight": 5950,
      "Well": 5951,
      "Wace": 5952,
      "Wood": 5953,
      "Wool": 5954,
      "Wins": 5955,
      "Wald": 5956,
      "Yi": 5957,
      "Yach": 5958,
      "ZX": 5959,
      "Zac": 5960,
      "Zig": 5961,
      "Zep": 5962,
      "aun": 5963,
      "aus": 5964,
      "ault": 5965,
      "aunt": 5966,
      "aesthe": 5967,
      "aeder": 5968,
      "bare": 5969,
      "bri": 5970,
      "bres": 5971,
      "bia": 5972,
      "bated": 5973,
      "bast": 5974,
      "bend": 5975,
      "bone": 5976,
      "bition": 5977,
      "barri": 5978,
      "bene": 5979,
      "blob": 5980,
      "battles": 5981,
      "cad": 5982,
      "cus": 5983,
      "cum": 5984,
      "cous": 5985,
      "carc": 5986,
      "cash": 5987,
      "clear": 5988,
      "crescent": 5989,
      "dr": 5990,
      "dé": 5991,
      "dol": 5992,
      "dow": 5993,
      "dot": 5994,
      "dul": 5995,
      "ders": 5996,
      "dark": 5997,
      "dwell": 5998,
      "dina": 5999,
      "danced": 6000,
      "drange": 6001,
      "drum": 6002,
      "ee": 6003,
      "epo": 6004,
      "eco": 6005,
      "eighty": 6006,
      "fre": 6007,
      "fit": 6008,
      "fas": 6009,
      "fol": 6010,
      "fur": 6011,
      "fus": 6012,
      "fare": 6013,
      "flo": 6014,
      "fear": 6015,
      "fine": 6016,
      "fish": 6017,
      "foc": 6018,
      "fran": 6019,
      "face": 6020,
      "fred": 6021,
      "frequ": 6022,
      "fash": 6023,
      "ffield": 6024,
      "faces": 6025,
      "fense": 6026,
      "facul": 6027,
      "fusion": 6028,
      "focus": 6029,
      "figures": 6030,
      "gas": 6031,
      "gam": 6032,
      "gain": 6033,
      "gear": 6034,
      "gian": 6035,
      "gates": 6036,
      "ggl": 6037,
      "gloss": 6038,
      "grew": 6039,
      "girls": 6040,
      "gunda": 6041,
      "gastro": 6042,
      "garet": 6043,
      "hu": 6044,
      "hom": 6045,
      "hri": 6046,
      "hop": 6047,
      "hran": 6048,
      "hollow": 6049,
      "hunt": 6050,
      "haps": 6051,
      "iing": 6052,
      "iers": 6053,
      "iform": 6054,
      "iev": 6055,
      "ients": 6056,
      "iately": 6057,
      "jit": 6058,
      "jet": 6059,
      "jour": 6060,
      "jump": 6061,
      "ki": 6062,
      "ky": 6063,
      "kou": 6064,
      "kig": 6065,
      "kind": 6066,
      "kheim": 6067,
      "ketamine": 6068,
      "lon": 6069,
      "lor": 6070,
      "lot": 6071,
      "lain": 6072,
      "lers": 6073,
      "lies": 6074,
      "lust": 6075,
      "lake": 6076,
      "laid": 6077,
      "lane": 6078,
      "lfar": 6079,
      "lás": 6080,
      "mir": 6081,
      "moun": 6082,
      "mast": 6083,
      "mish": 6084,
      "mits": 6085,
      "mland": 6086,
      "mens": 6087,
      "mapp": 6088,
      "mbly": 6089,
      "ni": 6090,
      "nom": 6091,
      "nations": 6092,
      "narr": 6093,
      "oing": 6094,
      "och": 6095,
      "ote": 6096,
      "ook": 6097,
      "olet": 6098,
      "otechnology": 6099,
      "odies": 6100,
      "pu": 6101,
      "phe": 6102,
      "pal": 6103,
      "pay": 6104,
      "pical": 6105,
      "pha": 6106,
      "phas": 6107,
      "pound": 6108,
      "pater": 6109,
      "psy": 6110,
      "pair": 6111,
      "penn": 6112,
      "paid": 6113,
      "pages": 6114,
      "paired": 6115,
      "piece": 6116,
      "rd": 6117,
      "ras": 6118,
      "rim": 6119,
      "rid": 6120,
      "rich": 6121,
      "rated": 6122,
      "rish": 6123,
      "rating": 6124,
      "riding": 6125,
      "rho": 6126,
      "rbol": 6127,
      "racing": 6128,
      "rmland": 6129,
      "sl": 6130,
      "sal": 6131,
      "som": 6132,
      "sess": 6133,
      "sip": 6134,
      "sport": 6135,
      "swe": 6136,
      "sists": 6137,
      "smel": 6138,
      "slight": 6139,
      "skeleton": 6140,
      "spring": 6141,
      "tation": 6142,
      "tip": 6143,
      "tations": 6144,
      "table": 6145,
      "tank": 6146,
      "taster": 6147,
      "tention": 6148,
      "tario": 6149,
      "uz": 6150,
      "uing": 6151,
      "uating": 6152,
      "udero": 6153,
      "uistic": 6154,
      "vamp": 6155,
      "wal": 6156,
      "wit": 6157,
      "wall": 6158,
      "wich": 6159,
      "wine": 6160,
      "want": 6161,
      "wire": 6162,
      "wili": 6163,
      "waves": 6164,
      "wook": 6165,
      "xy": 6166,
      "xury": 6167,
      "xico": 6168,
      "yar": 6169,
      "your": 6170,
      "yals": 6171,
      "ynam": 6172,
      "yatt": 6173,
      "yellow": 6174,
      "yoke": 6175,
      "ze": 6176,
      "zil": 6177,
      "zca": 6178,
      "zuel": 6179,
      "Árbol": 6180,
      "án": 6181,
      "ále": 6182,
      "és": 6183,
      "étic": 6184,
      "ía": 6185,
      "ío": 6186,
      "ívar": 6187,
      "ør": 6188,
      "ükou": 6189,
      "ро": 6190,
      "لل": 6191,
      "’’": 6192,
      "heat": 6193,
      "heir": 6194,
      "heus": 6195,
      "hemo": 6196,
      "inj": 6197,
      "ints": 6198,
      "intr": 6199,
      "inland": 6200,
      "indefin": 6201,
      "inhabit": 6202,
      "inately": 6203,
      "incapable": 6204,
      "infinite": 6205,
      "inscri": 6206,
      "anne": 6207,
      "anra": 6208,
      "theast": 6209,
      "themed": 6210,
      "theories": 6211,
      "theatre": 6212,
      "ond": 6213,
      "ono": 6214,
      "onto": 6215,
      "onom": 6216,
      "onian": 6217,
      "onie": 6218,
      "onians": 6219,
      "eru": 6220,
      "ering": 6221,
      "erto": 6222,
      "erator": 6223,
      "erbated": 6224,
      "rear": 6225,
      "repe": 6226,
      "reform": 6227,
      "reous": 6228,
      "revis": 6229,
      "restr": 6230,
      "recomm": 6231,
      "replic": 6232,
      "recalled": 6233,
      "restit": 6234,
      "reforestation": 6235,
      "replace": 6236,
      "reya": 6237,
      "revol": 6238,
      "recreation": 6239,
      "refu": 6240,
      "reements": 6241,
      "replacing": 6242,
      "repair": 6243,
      "ati": 6244,
      "atile": 6245,
      "atically": 6246,
      "atina": 6247,
      "orney": 6248,
      "edges": 6249,
      "alo": 6250,
      "alone": 6251,
      "alition": 6252,
      "alament": 6253,
      "alysis": 6254,
      "alumin": 6255,
      "ening": 6256,
      "eness": 6257,
      "enjo": 6258,
      "enko": 6259,
      "stal": 6260,
      "stam": 6261,
      "stim": 6262,
      "stain": 6263,
      "stop": 6264,
      "stew": 6265,
      "stage": 6266,
      "stone": 6267,
      "step": 6268,
      "story": 6269,
      "stically": 6270,
      "staff": 6271,
      "stability": 6272,
      "arp": 6273,
      "aration": 6274,
      "argu": 6275,
      "arns": 6276,
      "andum": 6277,
      "ito": 6278,
      "itz": 6279,
      "item": 6280,
      "itable": 6281,
      "itled": 6282,
      "itative": 6283,
      "itiate": 6284,
      "aside": 6285,
      "asphe": 6286,
      "isition": 6287,
      "ismic": 6288,
      "ishes": 6289,
      "essee": 6290,
      "eship": 6291,
      "inger": 6292,
      "ingly": 6293,
      "ici": 6294,
      "icy": 6295,
      "icist": 6296,
      "icine": 6297,
      "ications": 6298,
      "icted": 6299,
      "roc": 6300,
      "ros": 6301,
      "royal": 6302,
      "robot": 6303,
      "roster": 6304,
      "tot": 6305,
      "tool": 6306,
      "touring": 6307,
      "leigh": 6308,
      "leased": 6309,
      "leverage": 6310,
      "legraph": 6311,
      "leasing": 6312,
      "oud": 6313,
      "oured": 6314,
      "tha": 6315,
      "thin": 6316,
      "thous": 6317,
      "thys": 6318,
      "thouse": 6319,
      "thored": 6320,
      "thaceae": 6321,
      "thworm": 6322,
      "amas": 6323,
      "amby": 6324,
      "amoyo": 6325,
      "amateur": 6326,
      "iled": 6327,
      "ilst": 6328,
      "illy": 6329,
      "ilaw": 6330,
      "ently": 6331,
      "entered": 6332,
      "entrust": 6333,
      "entitled": 6334,
      "dest": 6335,
      "deut": 6336,
      "decess": 6337,
      "debt": 6338,
      "destro": 6339,
      "acce": 6340,
      "accom": 6341,
      "accept": 6342,
      "acerbated": 6343,
      "forces": 6344,
      "seat": 6345,
      "sees": 6346,
      "sely": 6347,
      "seced": 6348,
      "seats": 6349,
      "secret": 6350,
      "seismic": 6351,
      "olving": 6352,
      "irt": 6353,
      "iru": 6354,
      "iry": 6355,
      "iring": 6356,
      "irred": 6357,
      "irrho": 6358,
      "beto": 6359,
      "beet": 6360,
      "beats": 6361,
      "lying": 6362,
      "urb": 6363,
      "uri": 6364,
      "urse": 6365,
      "urance": 6366,
      "urcation": 6367,
      "igible": 6368,
      "iguration": 6369,
      "proof": 6370,
      "proved": 6371,
      "provision": 6372,
      "proje": 6373,
      "provin": 6374,
      "proceeded": 6375,
      "procured": 6376,
      "Theod": 6377,
      "Theatre": 6378,
      "vet": 6379,
      "vements": 6380,
      "chi": 6381,
      "chain": 6382,
      "chip": 6383,
      "chise": 6384,
      "champions": 6385,
      "chdale": 6386,
      "choral": 6387,
      "chastic": 6388,
      "challenge": 6389,
      "conce": 6390,
      "contr": 6391,
      "concer": 6392,
      "constit": 6393,
      "concurrently": 6394,
      "conversion": 6395,
      "convolution": 6396,
      "une": 6397,
      "unable": 6398,
      "unanim": 6399,
      "uneducated": 6400,
      "unsuccessful": 6401,
      "unique": 6402,
      "unplugged": 6403,
      "adu": 6404,
      "adap": 6405,
      "adani": 6406,
      "imet": 6407,
      "immed": 6408,
      "iments": 6409,
      "imports": 6410,
      "imager": 6411,
      "implies": 6412,
      "tels": 6413,
      "tepara": 6414,
      "tecus": 6415,
      "cturer": 6416,
      "terfly": 6417,
      "ushes": 6418,
      "cep": 6419,
      "1920": 6420,
      "1913": 6421,
      "1922": 6422,
      "1914": 6423,
      "1924": 6424,
      "1929": 6425,
      "1928": 6426,
      "ayed": 6427,
      "agro": 6428,
      "agreements": 6429,
      "208": 6430,
      "20x": 6431,
      "ids": 6432,
      "idal": 6433,
      "idate": 6434,
      "idden": 6435,
      "arest": 6436,
      "api": 6437,
      "apter": 6438,
      "apers": 6439,
      "apher": 6440,
      "apenko": 6441,
      "etal": 6442,
      "ette": 6443,
      "eties": 6444,
      "why": 6445,
      "whilst": 6446,
      "verty": 6447,
      "istors": 6448,
      "eland": 6449,
      "eless": 6450,
      "eligible": 6451,
      "uty": 6452,
      "utter": 6453,
      "utton": 6454,
      "utality": 6455,
      "comes": 6456,
      "complic": 6457,
      "compete": 6458,
      "plified": 6459,
      "plastic": 6460,
      "sue": 6461,
      "suited": 6462,
      "subor": 6463,
      "suicide": 6464,
      "sufficient": 6465,
      "sustain": 6466,
      "Incan": 6467,
      "Instr": 6468,
      "Indon": 6469,
      "Independ": 6470,
      "Instead": 6471,
      "Intell": 6472,
      "abled": 6473,
      "abbot": 6474,
      "emiss": 6475,
      "embark": 6476,
      "rome": 6477,
      "romantic": 6478,
      "loqu": 6479,
      "shal": 6480,
      "shif": 6481,
      "ries": 6482,
      "riff": 6483,
      "rique": 6484,
      "peace": 6485,
      "nections": 6486,
      "neck": 6487,
      "nearest": 6488,
      "berry": 6489,
      "bercu": 6490,
      "berlain": 6491,
      "diver": 6492,
      "diff": 6493,
      "dives": 6494,
      "division": 6495,
      "resin": 6496,
      "ression": 6497,
      "resins": 6498,
      "resolutions": 6499,
      "artists": 6500,
      "ula": 6501,
      "uli": 6502,
      "ulic": 6503,
      "ultra": 6504,
      "exper": 6505,
      "exha": 6506,
      "exports": 6507,
      "exposed": 6508,
      "exotic": 6509,
      "exacerbated": 6510,
      "cious": 6511,
      "ción": 6512,
      "clin": 6513,
      "cling": 6514,
      "clave": 6515,
      "client": 6516,
      "peror": 6517,
      "pering": 6518,
      "perary": 6519,
      "perian": 6520,
      "percept": 6521,
      "persist": 6522,
      "perfect": 6523,
      "perhaps": 6524,
      "thermo": 6525,
      "therlands": 6526,
      "trim": 6527,
      "train": 6528,
      "pope": 6529,
      "poverty": 6530,
      "ardo": 6531,
      "illance": 6532,
      "alled": 6533,
      "modi": 6534,
      "ogwe": 6535,
      "ogie": 6536,
      "aka": 6537,
      "aked": 6538,
      "boar": 6539,
      "boom": 6540,
      "boating": 6541,
      "quite": 6542,
      "quick": 6543,
      "quiry": 6544,
      "formally": 6545,
      "formance": 6546,
      "ichthys": 6547,
      "gei": 6548,
      "geju": 6549,
      "ianthaceae": 6550,
      "words": 6551,
      "ighthouse": 6552,
      "raf": 6553,
      "raid": 6554,
      "raise": 6555,
      "firms": 6556,
      "haz": 6557,
      "hair": 6558,
      "compon": 6559,
      "compound": 6560,
      "compris": 6561,
      "compression": 6562,
      "asty": 6563,
      "endary": 6564,
      "endant": 6565,
      "twel": 6566,
      "twenty": 6567,
      "oph": 6568,
      "ops": 6569,
      "opposed": 6570,
      "ophon": 6571,
      "1820": 6572,
      "1821": 6573,
      "1863": 6574,
      "ustion": 6575,
      "iful": 6576,
      "ifier": 6577,
      "ifying": 6578,
      "oded": 6579,
      "oding": 6580,
      "odom": 6581,
      "assign": 6582,
      "assigned": 6583,
      "assurance": 6584,
      "herself": 6585,
      "actor": 6586,
      "actually": 6587,
      "actuating": 6588,
      "udence": 6589,
      "ishing": 6590,
      "ishop": 6591,
      "ongoing": 6592,
      "whole": 6593,
      "butcher": 6594,
      "butterfly": 6595,
      "urely": 6596,
      "notes": 6597,
      "notable": 6598,
      "notice": 6599,
      "notify": 6600,
      "noticed": 6601,
      "ryl": 6602,
      "rymore": 6603,
      "ryption": 6604,
      "ups": 6605,
      "update": 6606,
      "Head": 6607,
      "ources": 6608,
      "awn": 6609,
      "aware": 6610,
      "manage": 6611,
      "managing": 6612,
      "anta": 6613,
      "anti": 6614,
      "antirrho": 6615,
      "Stage": 6616,
      "Staff": 6617,
      "crets": 6618,
      "creator": 6619,
      "outline": 6620,
      "outpost": 6621,
      "lled": 6622,
      "lling": 6623,
      "llion": 6624,
      "Ang": 6625,
      "Anne": 6626,
      "Ansel": 6627,
      "Anheus": 6628,
      "Analysis": 6629,
      "Antepara": 6630,
      "Antrim": 6631,
      "Chand": 6632,
      "Chief": 6633,
      "Chapter": 6634,
      "surfer": 6635,
      "bras": 6636,
      "brig": 6637,
      "brakes": 6638,
      "brutality": 6639,
      "landing": 6640,
      "2001": 6641,
      "afs": 6642,
      "affe": 6643,
      "affil": 6644,
      "affect": 6645,
      "meters": 6646,
      "prus": 6647,
      "prudence": 6648,
      "izers": 6649,
      "izable": 6650,
      "izabe": 6651,
      "minute": 6652,
      "achiev": 6653,
      "boarding": 6654,
      "visions": 6655,
      "visible": 6656,
      "angers": 6657,
      "101": 6658,
      "103": 6659,
      "104": 6660,
      "105": 6661,
      "106": 6662,
      "automata": 6663,
      "authored": 6664,
      "prey": 6665,
      "premis": 6666,
      "prelim": 6667,
      "prehistory": 6668,
      "precise": 6669,
      "prebend": 6670,
      "predecess": 6671,
      "vie": 6672,
      "viol": 6673,
      "viously": 6674,
      "violet": 6675,
      "coaceae": 6676,
      "serve": 6677,
      "rite": 6678,
      "Armen": 6679,
      "signing": 6680,
      "Unit": 6681,
      "avo": 6682,
      "Alan": 6683,
      "Alter": 6684,
      "Along": 6685,
      "Aladd": 6686,
      "Alfa": 6687,
      "Alfred": 6688,
      "interpre": 6689,
      "interspace": 6690,
      "intersection": 6691,
      "monarch": 6692,
      "monks": 6693,
      "ension": 6694,
      "ensity": 6695,
      "ensions": 6696,
      "party": 6697,
      "partly": 6698,
      "partial": 6699,
      "grid": 6700,
      "grass": 6701,
      "grants": 6702,
      "grind": 6703,
      "grapher": 6704,
      "liber": 6705,
      "metro": 6706,
      "metres": 6707,
      "athan": 6708,
      "athletics": 6709,
      "versatile": 6710,
      "Spel": 6711,
      "Spark": 6712,
      "Spenc": 6713,
      "Spirit": 6714,
      "160": 6715,
      "1689": 6716,
      "bles": 6717,
      "blast": 6718,
      "blue": 6719,
      "goes": 6720,
      "spin": 6721,
      "spent": 6722,
      "spans": 6723,
      "spapers": 6724,
      "despite": 6725,
      "surfing": 6726,
      "surfers": 6727,
      "surfaces": 6728,
      "median": 6729,
      "tims": 6730,
      "portion": 6731,
      "Joo": 6732,
      "Josh": 6733,
      "Joint": 6734,
      "Joyal": 6735,
      "Johri": 6736,
      "Rovers": 6737,
      "Robin": 6738,
      "Royals": 6739,
      "Rochdale": 6740,
      "evolving": 6741,
      "idea": 6742,
      "ideas": 6743,
      "ancement": 6744,
      "lock": 6745,
      "colour": 6746,
      "colloqu": 6747,
      "Ency": 6748,
      "Enrique": 6749,
      "Enclave": 6750,
      "airfield": 6751,
      "airbrakes": 6752,
      "posing": 6753,
      "positive": 6754,
      "possess": 6755,
      "ilean": 6756,
      "intent": 6757,
      "intensive": 6758,
      "1716": 6759,
      "1715": 6760,
      "1711": 6761,
      "1727": 6762,
      "1730": 6763,
      "1734": 6764,
      "Assists": 6765,
      "fibre": 6766,
      "newspapers": 6767,
      "fee": 6768,
      "phone": 6769,
      "systemics": 6770,
      "Developer": 6771,
      "Defense": 6772,
      "flown": 6773,
      "flash": 6774,
      "flora": 6775,
      "pting": 6776,
      "curs": 6777,
      "curator": 6778,
      "weak": 6779,
      "wegian": 6780,
      "retinas": 6781,
      "returning": 6782,
      "1350": 6783,
      "1342": 6784,
      "disco": 6785,
      "dissol": 6786,
      "dissip": 6787,
      "ika": 6788,
      "relations": 6789,
      "relatively": 6790,
      "expires": 6791,
      "expressed": 6792,
      "strug": 6793,
      "struction": 6794,
      "iege": 6795,
      "tona": 6796,
      "undercarriage": 6797,
      "underlying": 6798,
      "preser": 6799,
      "presence": 6800,
      "1981": 6801,
      "sociology": 6802,
      "society": 6803,
      "sociologist": 6804,
      "roughout": 6805,
      "Collin": 6806,
      "ails": 6807,
      "ailer": 6808,
      "centers": 6809,
      "centimet": 6810,
      "overall": 6811,
      "someone": 6812,
      "something": 6813,
      "ilda": 6814,
      "Leys": 6815,
      "Leagues": 6816,
      "Lecturer": 6817,
      "Leafs": 6818,
      "Sea": 6819,
      "Seals": 6820,
      "Season": 6821,
      "Segunda": 6822,
      "Segeju": 6823,
      "sheet": 6824,
      "sheep": 6825,
      "sheets": 6826,
      "tenance": 6827,
      "1962": 6828,
      "1964": 6829,
      "ultura": 6830,
      "Contest": 6831,
      "Consul": 6832,
      "Concrete": 6833,
      "Connections": 6834,
      "iversary": 6835,
      "offensive": 6836,
      "offshore": 6837,
      "Peru": 6838,
      "Periy": 6839,
      "Performance": 6840,
      "Short": 6841,
      "Shreya": 6842,
      "Shirt": 6843,
      "releases": 6844,
      "Malay": 6845,
      "Maldives": 6846,
      "Ondina": 6847,
      "Ontario": 6848,
      "bienn": 6849,
      "biologically": 6850,
      "biometric": 6851,
      "passed": 6852,
      "valve": 6853,
      "values": 6854,
      "deaths": 6855,
      "Affair": 6856,
      "Commit": 6857,
      "Commission": 6858,
      "buses": 6859,
      "capability": 6860,
      "capabil": 6861,
      "police": 6862,
      "attribut": 6863,
      "attending": 6864,
      "attorney": 6865,
      "attendant": 6866,
      "performing": 6867,
      "helping": 6868,
      "Mina": 6869,
      "Minab": 6870,
      "ictures": 6871,
      "produce": 6872,
      "producer": 6873,
      "buff": 6874,
      "joins": 6875,
      "simply": 6876,
      "simplified": 6877,
      "thenburg": 6878,
      "glab": 6879,
      "glider": 6880,
      "gliders": 6881,
      "regation": 6882,
      "Britain": 6883,
      "Real": 6884,
      "Recent": 6885,
      "Released": 6886,
      "Sepultura": 6887,
      "foundation": 6888,
      "arrived": 6889,
      "arriving": 6890,
      "Fort": 6891,
      "breac": 6892,
      "cks": 6893,
      "parish": 6894,
      "paramount": 6895,
      "trial": 6896,
      "tribe": 6897,
      "trips": 6898,
      "anniversary": 6899,
      "redund": 6900,
      "Beaut": 6901,
      "Behemo": 6902,
      "Junction": 6903,
      "gaits": 6904,
      "misused": 6905,
      "Sche": 6906,
      "Scand": 6907,
      "hier": 6908,
      "hires": 6909,
      "hibition": 6910,
      "link": 6911,
      "consent": 6912,
      "extend": 6913,
      "extended": 6914,
      "extending": 6915,
      "footage": 6916,
      "lars": 6917,
      "properties": 6918,
      "technological": 6919,
      "subst": 6920,
      "subject": 6921,
      "Atl": 6922,
      "ffy": 6923,
      "invited": 6924,
      "invitation": 6925,
      "engers": 6926,
      "losis": 6927,
      "publications": 6928,
      "McGinn": 6929,
      "Mayfair": 6930,
      "Norwegian": 6931,
      "calls": 6932,
      "varieties": 6933,
      "receiving": 6934,
      "receiver": 6935,
      "transition": 6936,
      "completion": 6937,
      "continuing": 6938,
      "continually": 6939,
      "Marit": 6940,
      "Marion": 6941,
      "Margaret": 6942,
      "Maruri": 6943,
      "Prime": 6944,
      "doors": 6945,
      "mainly": 6946,
      "maintenance": 6947,
      "warden": 6948,
      "direction": 6949,
      "differences": 6950,
      "distances": 6951,
      "patri": 6952,
      "depict": 6953,
      "depicts": 6954,
      "1934": 6955,
      "supports": 6956,
      "supplies": 6957,
      "Board": 6958,
      "Book": 6959,
      "Nov": 6960,
      "Noel": 6961,
      "matters": 6962,
      "matches": 6963,
      "writers": 6964,
      "realm": 6965,
      "reality": 6966,
      "realizes": 6967,
      "chanan": 6968,
      "utional": 6969,
      "Eugé": 6970,
      "Eutecus": 6971,
      "Febres": 6972,
      "Sheffield": 6973,
      "chester": 6974,
      "donation": 6975,
      "filmed": 6976,
      "films": 6977,
      "ticeship": 6978,
      "dels": 6979,
      "adier": 6980,
      "summ": 6981,
      "summit": 6982,
      "Generation": 6983,
      "drawn": 6984,
      "drastically": 6985,
      "draulic": 6986,
      "guard": 6987,
      "guards": 6988,
      "hometown": 6989,
      "opera": 6990,
      "operas": 6991,
      "operation": 6992,
      "operate": 6993,
      "operVision": 6994,
      "indic": 6995,
      "striations": 6996,
      "striking": 6997,
      "startup": 6998,
      "defend": 6999,
      "defensive": 7000,
      "approach": 7001,
      "Interstate": 7002,
      "Internet": 7003,
      "Team": 7004,
      "Teens": 7005,
      "Teaching": 7006,
      "Tehran": 7007,
      "Telegraph": 7008,
      "connection": 7009,
      "locality": 7010,
      "localized": 7011,
      "colleague": 7012,
      "Blue": 7013,
      "Blues": 7014,
      "Blasphe": 7015,
      "Canción": 7016,
      "Organ": 7017,
      "Trás": 7018,
      "Warlust": 7019,
      "organized": 7020,
      "organize": 7021,
      "organised": 7022,
      "organizations": 7023,
      "added": 7024,
      "addressed": 7025,
      "1950s": 7026,
      "2994": 7027,
      "Camera": 7028,
      "azine": 7029,
      "plepatrick": 7030,
      "insider": 7031,
      "sett": 7032,
      "grammar": 7033,
      "businesses": 7034,
      "businessman": 7035,
      "CooperVision": 7036,
      "Saint": 7037,
      "elected": 7038,
      "eleven": 7039,
      "lamination": 7040,
      "legates": 7041,
      "legendary": 7042,
      "letters": 7043,
      "leads": 7044,
      "leaders": 7045,
      "leadership": 7046,
      "detect": 7047,
      "detectors": 7048,
      "acquisition": 7049,
      "becoming": 7050,
      "Indians": 7051,
      "views": 7052,
      "Neill": 7053,
      "Netherlands": 7054,
      "Nationals": 7055,
      "melodies": 7056,
      "investor": 7057,
      "invested": 7058,
      "incorporate": 7059,
      "statist": 7060,
      "residential": 7061,
      "Ambassador": 7062,
      "Amroc": 7063,
      "Elizabe": 7064,
      "Goshal": 7065,
      "Gothenburg": 7066,
      "Lakes": 7067,
      "Social": 7068,
      "studying": 7069,
      "decades": 7070,
      "planer": 7071,
      "planes": 7072,
      "Afterwards": 7073,
      "Companies": 7074,
      "Carl": 7075,
      "Carro": 7076,
      "Carland": 7077,
      "Carmel": 7078,
      "Hotels": 7079,
      "Sergei": 7080,
      "Stearns": 7081,
      "Three": 7082,
      "Throughout": 7083,
      "backs": 7084,
      "ecclesiastical": 7085,
      "solo": 7086,
      "solution": 7087,
      "steel": 7088,
      "tourist": 7089,
      "programs": 7090,
      "programme": 7091,
      "programmer": 7092,
      "1942": 7093,
      "worldwide": 7094,
      "governor": 7095,
      "governed": 7096,
      "politics": 7097,
      "Francoaceae": 7098,
      "fewer": 7099,
      "factor": 7100,
      "factory": 7101,
      "mayor": 7102,
      "running": 7103,
      "runway": 7104,
      "thirds": 7105,
      "sixth": 7106,
      "microprocessors": 7107,
      "recognize": 7108,
      "Aircraft": 7109,
      "Herichthys": 7110,
      "Points": 7111,
      "equation": 7112,
      "equival": 7113,
      "gorill": 7114,
      "gories": 7115,
      "holds": 7116,
      "holding": 7117,
      "protein": 7118,
      "protection": 7119,
      "protecting": 7120,
      "advoc": 7121,
      "trait": 7122,
      "railroad": 7123,
      "1883": 7124,
      "1885": 7125,
      "1887": 7126,
      "1888": 7127,
      "Andrew": 7128,
      "authorized": 7129,
      "introduce": 7130,
      "appearances": 7131,
      "Donati": 7132,
      "Nagas": 7133,
      "Nagaland": 7134,
      "Naglfar": 7135,
      "Parantirrho": 7136,
      "SAR": 7137,
      "laun": 7138,
      "risk": 7139,
      "titles": 7140,
      "virus": 7141,
      "steresis": 7142,
      "succeeded": 7143,
      "response": 7144,
      "responded": 7145,
      "Charts": 7146,
      "internationally": 7147,
      "describes": 7148,
      "biography": 7149,
      "Adv": 7150,
      "Adrian": 7151,
      "Max": 7152,
      "Morning": 7153,
      "Morlás": 7154,
      "bara": 7155,
      "barare": 7156,
      "burgh": 7157,
      "buried": 7158,
      "hyr": 7159,
      "hype": 7160,
      "hyper": 7161,
      "hydraulic": 7162,
      "hysteresis": 7163,
      "youngster": 7164,
      "offering": 7165,
      "configuration": 7166,
      "texture": 7167,
      "otsk": 7168,
      "peaked": 7169,
      "peaking": 7170,
      "ipping": 7171,
      "1892": 7172,
      "1895": 7173,
      "1896": 7174,
      "Archie": 7175,
      "gradually": 7176,
      "generous": 7177,
      "evening": 7178,
      "Minister": 7179,
      "Ministers": 7180,
      "obtaining": 7181,
      "engineers": 7182,
      "losses": 7183,
      "Marians": 7184,
      "additional": 7185,
      "Brock": 7186,
      "Holy": 7187,
      "broader": 7188,
      "broadcaster": 7189,
      "hospit": 7190,
      "painted": 7191,
      "influences": 7192,
      "influenced": 7193,
      "readily": 7194,
      "promoting": 7195,
      "promotional": 7196,
      "1902": 7197,
      "1907": 7198,
      "combat": 7199,
      "posted": 7200,
      "postul": 7201,
      "postponed": 7202,
      "colonist": 7203,
      "colonists": 7204,
      "glassing": 7205,
      "glassers": 7206,
      "participate": 7207,
      "Azerbaijani": 7208,
      "Buchanan": 7209,
      "Barail": 7210,
      "Barbad": 7211,
      "Barrymore": 7212,
      "Center": 7213,
      "Centre": 7214,
      "Experian": 7215,
      "Exhibition": 7216,
      "Jackson": 7217,
      "Kenyatt": 7218,
      "Smart": 7219,
      "clop": 7220,
      "gentleman": 7221,
      "horn": 7222,
      "horse": 7223,
      "ruins": 7224,
      "ramentum": 7225,
      "smaller": 7226,
      "headman": 7227,
      "headquarters": 7228,
      "tomato": 7229,
      "amongst": 7230,
      "declaration": 7231,
      "conducts": 7232,
      "containing": 7233,
      "classical": 7234,
      "classicist": 7235,
      "optical": 7236,
      "syndic": 7237,
      "historic": 7238,
      "historical": 7239,
      "historically": 7240,
      "sequently": 7241,
      "Guayaquilean": 7242,
      "characterized": 7243,
      "Berwick": 7244,
      "Borough": 7245,
      "Busch": 7246,
      "Business": 7247,
      "Dragon": 7248,
      "Depending": 7249,
      "Deputy": 7250,
      "ESTA": 7251,
      "Method": 7252,
      "Metell": 7253,
      "Network": 7254,
      "Netley": 7255,
      "Previously": 7256,
      "Visa": 7257,
      "Visitors": 7258,
      "hostage": 7259,
      "makeups": 7260,
      "representing": 7261,
      "representation": 7262,
      "representatives": 7263,
      "icians": 7264,
      "leaves": 7265,
      "constructing": 7266,
      "ussed": 7267,
      "apsed": 7268,
      "umbai": 7269,
      "exception": 7270,
      "exceptional": 7271,
      "claims": 7272,
      "keeping": 7273,
      "measured": 7274,
      "coastal": 7275,
      "contributor": 7276,
      "contribution": 7277,
      "missionary": 7278,
      "graduating": 7279,
      "Hawaii": 7280,
      "570": 7281,
      "Implement": 7282,
      "Libr": 7283,
      "MATC": 7284,
      "Pangbour": 7285,
      "System": 7286,
      "Syria": 7287,
      "Systems": 7288,
      "Symph": 7289,
      "Twenty": 7290,
      "brown": 7291,
      "brothers": 7292,
      "bassy": 7293,
      "baseball": 7294,
      "doub": 7295,
      "doubt": 7296,
      "driven": 7297,
      "hands": 7298,
      "ixel": 7299,
      "psies": 7300,
      "picks": 7301,
      "chiefs": 7302,
      "teenager": 7303,
      "explored": 7304,
      "Joseon": 7305,
      "Blackened": 7306,
      "Blackacre": 7307,
      "investigated": 7308,
      "investigating": 7309,
      "jurisprudence": 7310,
      "Belfast": 7311,
      "Congregation": 7312,
      "Design": 7313,
      "Deslin": 7314,
      "Despite": 7315,
      "Eastleigh": 7316,
      "Finland": 7317,
      "Macao": 7318,
      "Maconie": 7319,
      "Polish": 7320,
      "Polotsk": 7321,
      "Tamas": 7322,
      "Tambarare": 7323,
      "Urban": 7324,
      "Valued": 7325,
      "farmer": 7326,
      "junction": 7327,
      "lington": 7328,
      "linguistic": 7329,
      "massacre": 7330,
      "ranged": 7331,
      "ranges": 7332,
      "ranging": 7333,
      "skin": 7334,
      "skis": 7335,
      "skiing": 7336,
      "squad": 7337,
      "reviewed": 7338,
      "environments": 7339,
      "rocker": 7340,
      "towns": 7341,
      "suggests": 7342,
      "suggested": 7343,
      "modelling": 7344,
      "costal": 7345,
      "interconnected": 7346,
      "interconnections": 7347,
      "blanks": 7348,
      "novitiate": 7349,
      "feedback": 7350,
      "physically": 7351,
      "polyester": 7352,
      "breaking": 7353,
      "breakthrough": 7354,
      "electric": 7355,
      "officials": 7356,
      "closely": 7357,
      "excavation": 7358,
      "Iraqi": 7359,
      "materials": 7360,
      "687": 7361,
      "Abdell": 7362,
      "Abdul": 7363,
      "CEO": 7364,
      "Duke": 7365,
      "Duveen": 7366,
      "Duffy": 7367,
      "Durrow": 7368,
      "Durkheim": 7369,
      "Hobart": 7370,
      "Irvine": 7371,
      "Laws": 7372,
      "NATO": 7373,
      "Rockin": 7374,
      "dedicated": 7375,
      "easier": 7376,
      "failing": 7377,
      "hammed": 7378,
      "nanotechnology": 7379,
      "papal": 7380,
      "soft": 7381,
      "stochastic": 7382,
      "iliers": 7383,
      "department": 7384,
      "seeing": 7385,
      "suffered": 7386,
      "looked": 7387,
      "looking": 7388,
      "poetry": 7389,
      "Arabic": 7390,
      "occurred": 7391,
      "graphic": 7392,
      "graphics": 7393,
      "mixer": 7394,
      "websites": 7395,
      "discrim": 7396,
      "passenger": 7397,
      "valuing": 7398,
      "valuable": 7399,
      "commanded": 7400,
      "temporal": 7401,
      "Technical": 7402,
      "marketing": 7403,
      "Servant": 7404,
      "Muslims": 7405,
      "controlled": 7406,
      "Premio": 7407,
      "Premier": 7408,
      "jurisdiction": 7409,
      "jurisdictional": 7410,
      "employment": 7411,
      "Ottobone": 7412,
      "semiconductors": 7413,
      "Flames": 7414,
      "Gaeda": 7415,
      "Justice": 7416,
      "Lima": 7417,
      "MOA": 7418,
      "Moore": 7419,
      "Mohom": 7420,
      "Mohammed": 7421,
      "Penalty": 7422,
      "Partially": 7423,
      "Russia": 7424,
      "Stowe": 7425,
      "Stock": 7426,
      "Stoker": 7427,
      "Stranra": 7428,
      "Years": 7429,
      "cini": 7430,
      "catalog": 7431,
      "catastro": 7432,
      "cutting": 7433,
      "critical": 7434,
      "dimensional": 7435,
      "higher": 7436,
      "hunted": 7437,
      "hunters": 7438,
      "machine": 7439,
      "pped": 7440,
      "pipes": 7441,
      "phenomena": 7442,
      "rules": 7443,
      "ruling": 7444,
      "swamp": 7445,
      "sandwich": 7446,
      "scientist": 7447,
      "spreading": 7448,
      "voice": 7449,
      "initially": 7450,
      "errors": 7451,
      "errone": 7452,
      "remained": 7453,
      "reportedly": 7454,
      "rooms": 7455,
      "lecturer": 7456,
      "devoted": 7457,
      "defects": 7458,
      "seems": 7459,
      "seemingly": 7460,
      "proposals": 7461,
      "charting": 7462,
      "chairman": 7463,
      "admitted": 7464,
      "tells": 7465,
      "supermarket": 7466,
      "neighbour": 7467,
      "resides": 7468,
      "residence": 7469,
      "exhibit": 7470,
      "optimal": 7471,
      "optimizing": 7472,
      "assisted": 7473,
      "Stuart": 7474,
      "Studies": 7475,
      "Streets": 7476,
      "brands": 7477,
      "visualization": 7478,
      "spectators": 7479,
      "Argentina": 7480,
      "library": 7481,
      "Endangered": 7482,
      "photojournal": 7483,
      "photographer": 7484,
      "scheduling": 7485,
      "Commons": 7486,
      "Commonwealth": 7487,
      "capitalization": 7488,
      "growls": 7489,
      "simplest": 7490,
      "registered": 7491,
      "registration": 7492,
      "regarded": 7493,
      "regarding": 7494,
      "analyzing": 7495,
      "guitarist": 7496,
      "approximate": 7497,
      "Soviet": 7498,
      "Computer": 7499,
      "Greyia": 7500,
      "Keefer": 7501,
      "citizen": 7502,
      "apprenticeship": 7503,
      "philosophical": 7504,
      "Apani": 7505,
      "ANNs": 7506,
      "Douro": 7507,
      "Eddie": 7508,
      "Earl": 7509,
      "Earthworm": 7510,
      "Freder": 7511,
      "Getty": 7512,
      "Medal": 7513,
      "Murphy": 7514,
      "Municip": 7515,
      "Machine": 7516,
      "Postal": 7517,
      "Walter": 7518,
      "flying": 7519,
      "favour": 7520,
      "honor": 7521,
      "harvest": 7522,
      "hito": 7523,
      "hardly": 7524,
      "judge": 7525,
      "kinson": 7526,
      "magnet": 7527,
      "peninsula": 7528,
      "heroic": 7529,
      "installed": 7530,
      "anesthetic": 7531,
      "thirteenth": 7532,
      "accidentally": 7533,
      "beatified": 7534,
      "beatification": 7535,
      "prototyp": 7536,
      "changing": 7537,
      "improving": 7538,
      "improvements": 7539,
      "emerge": 7540,
      "respect": 7541,
      "solely": 7542,
      "manuscripts": 7543,
      "credential": 7544,
      "surveillance": 7545,
      "meeting": 7546,
      "Albion": 7547,
      "playoffs": 7548,
      "Colombia": 7549,
      "memorandum": 7550,
      "requests": 7551,
      "requested": 7552,
      "distribution": 7553,
      "crowd": 7554,
      "crowds": 7555,
      "crossed": 7556,
      "effects": 7557,
      "Montes": 7558,
      "advantage": 7559,
      "Mathematically": 7560,
      "Browning": 7561,
      "literary": 7562,
      "literature": 7563,
      "coupled": 7564,
      "coupling": 7565,
      "flexibility": 7566,
      "integrate": 7567,
      "integrated": 7568,
      "sourcebooks": 7569,
      "exemptions": 7570,
      "Mueller": 7571,
      "McCartney": 7572,
      "hundreds": 7573,
      "Brad": 7574,
      "Bridge": 7575,
      "Benach": 7576,
      "Bestial": 7577,
      "Brennan": 7578,
      "Cyber": 7579,
      "Cyprus": 7580,
      "Clemens": 7581,
      "Campiel": 7582,
      "Darren": 7583,
      "Darryl": 7584,
      "Director": 7585,
      "Etude": 7586,
      "FAA": 7587,
      "Garage": 7588,
      "Hilton": 7589,
      "Hilson": 7590,
      "Hospital": 7591,
      "Hoskins": 7592,
      "Jersey": 7593,
      "Julius": 7594,
      "Jamaican": 7595,
      "Jamaica": 7596,
      "Laboratory": 7597,
      "Matilda": 7598,
      "Melianthaceae": 7599,
      "Painters": 7600,
      "Painting": 7601,
      "Portmore": 7602,
      "Saadani": 7603,
      "Sacramentum": 7604,
      "Speed": 7605,
      "Supply": 7606,
      "Supreme": 7607,
      "Tomatina": 7608,
      "Travel": 7609,
      "Todd": 7610,
      "Todds": 7611,
      "Web": 7612,
      "Wildlife": 7613,
      "bigger": 7614,
      "blood": 7615,
      "birds": 7616,
      "crash": 7617,
      "camera": 7618,
      "cultiv": 7619,
      "cleaning": 7620,
      "dinate": 7621,
      "firearms": 7622,
      "journalist": 7623,
      "lifted": 7624,
      "migration": 7625,
      "natural": 7626,
      "snakes": 7627,
      "silver": 7628,
      "scoring": 7629,
      "situations": 7630,
      "troops": 7631,
      "turns": 7632,
      "victims": 7633,
      "heavy": 7634,
      "heavily": 7635,
      "institutions": 7636,
      "institutional": 7637,
      "determination": 7638,
      "details": 7639,
      "detailed": 7640,
      "accuracy": 7641,
      "contemporary": 7642,
      "contemporaries": 7643,
      "advised": 7644,
      "impact": 7645,
      "composers": 7646,
      "Investments": 7647,
      "embraced": 7648,
      "experience": 7649,
      "clarification": 7650,
      "mentioned": 7651,
      "Starting": 7652,
      "Chanel": 7653,
      "Chanels": 7654,
      "Chilean": 7655,
      "bringing": 7656,
      "methods": 7657,
      "practice": 7658,
      "prevented": 7659,
      "strictly": 7660,
      "scenic": 7661,
      "sculpture": 7662,
      "commitment": 7663,
      "Records": 7664,
      "Recorded": 7665,
      "pursuing": 7666,
      "Whitfield": 7667,
      "paintings": 7668,
      "exhibits": 7669,
      "manufacture": 7670,
      "manufacturing": 7671,
      "Alexander": 7672,
      "Astana": 7673,
      "Bolívar": 7674,
      "Brazil": 7675,
      "Davis": 7676,
      "Doom": 7677,
      "Eyeglass": 7678,
      "Flowers": 7679,
      "Founded": 7680,
      "GRP": 7681,
      "Hyun": 7682,
      "Handeni": 7683,
      "Hungarian": 7684,
      "Haynes": 7685,
      "Hourigan": 7686,
      "Jenkins": 7687,
      "Kirkpatrick": 7688,
      "Lastly": 7689,
      "Locations": 7690,
      "Madrid": 7691,
      "Multiple": 7692,
      "Nyumbai": 7693,
      "Narayan": 7694,
      "Nicol": 7695,
      "Nigam": 7696,
      "PIM": 7697,
      "PLUTO": 7698,
      "Persian": 7699,
      "RMCNN": 7700,
      "Rabat": 7701,
      "Senior": 7702,
      "Tiger": 7703,
      "Ultra": 7704,
      "bulk": 7705,
      "circum": 7706,
      "cows": 7707,
      "categories": 7708,
      "dropped": 7709,
      "dubbed": 7710,
      "document": 7711,
      "fifth": 7712,
      "fighting": 7713,
      "garden": 7714,
      "holder": 7715,
      "happened": 7716,
      "luxury": 7717,
      "neling": 7718,
      "pilots": 7719,
      "punish": 7720,
      "pushed": 7721,
      "piano": 7722,
      "rigging": 7723,
      "rarely": 7724,
      "smooth": 7725,
      "sightseeing": 7726,
      "tubercu": 7727,
      "vanished": 7728,
      "watch": 7729,
      "wedding": 7730,
      "yacht": 7731,
      "hectares": 7732,
      "informative": 7733,
      "instrument": 7734,
      "refers": 7735,
      "rebellion": 7736,
      "revealed": 7737,
      "reporter": 7738,
      "enhancement": 7739,
      "storage": 7740,
      "argue": 7741,
      "assembly": 7742,
      "routine": 7743,
      "seeds": 7744,
      "selected": 7745,
      "believe": 7746,
      "procedures": 7747,
      "concern": 7748,
      "confrontation": 7749,
      "adopted": 7750,
      "emulated": 7751,
      "loyalty": 7752,
      "rieonians": 7753,
      "difficult": 7754,
      "divorced": 7755,
      "extraction": 7756,
      "pertaining": 7757,
      "earlier": 7758,
      "Antiqu": 7759,
      "Children": 7760,
      "survived": 7761,
      "brilliant": 7762,
      "profit": 7763,
      "prisingly": 7764,
      "preferring": 7765,
      "prevalence": 7766,
      "Algerian": 7767,
      "evaluated": 7768,
      "possibly": 7769,
      "Associated": 7770,
      "disciplinary": 7771,
      "reluctant": 7772,
      "schedule": 7773,
      "captures": 7774,
      "pollution": 7775,
      "encourage": 7776,
      "producible": 7777,
      "resembled": 7778,
      "fragment": 7779,
      "Primera": 7780,
      "maintained": 7781,
      "connectivity": 7782,
      "Warsash": 7783,
      "elephants": 7784,
      "laminate": 7785,
      "ecosystems": 7786,
      "microcontrollers": 7787,
      "virtue": 7788,
      "confirmation": 7789,
      "Territories": 7790,
      "Atholus": 7791,
      "syndrome": 7792,
      "exploitation": 7793,
      "Constituency": 7794,
      "restaurants": 7795,
      "discussion": 7796,
      "negotiations": 7797,
      "Mermaids": 7798,
      "Satanic": 7799,
      "favorite": 7800,
      "anesthesiologist": 7801,
      "Transportation": 7802,
      "Academy": 7803,
      "calculations": 7804,
      "customer": 7805,
      "Lithuanian": 7806,
      "Majority": 7807,
      "benefici": 7808,
      "inaugural": 7809,
      "paleoethnobotany": 7810,
      "Akon": 7811,
      "Atezca": 7812,
      "Auditor": 7813,
      "Amazon": 7814,
      "Arena": 7815,
      "Avenue": 7816,
      "Airdrieonians": 7817,
      "Bionic": 7818,
      "Badalament": 7819,
      "Bagamoyo": 7820,
      "Bifurcation": 7821,
      "Bryce": 7822,
      "Boutros": 7823,
      "Baird": 7824,
      "Bernard": 7825,
      "Bahamas": 7826,
      "Bergheim": 7827,
      "Ceramby": 7828,
      "Craig": 7829,
      "Castle": 7830,
      "Cafra": 7831,
      "Dzükou": 7832,
      "Daytona": 7833,
      "Danny": 7834,
      "Doyle": 7835,
      "Dynasty": 7836,
      "Ecclesiastical": 7837,
      "Escudero": 7838,
      "Empire": 7839,
      "Egypt": 7840,
      "Fédé": 7841,
      "Flemish": 7842,
      "Family": 7843,
      "Flores": 7844,
      "Facebook": 7845,
      "Gypsies": 7846,
      "Galway": 7847,
      "Gernika": 7848,
      "Gorka": 7849,
      "Gonzále": 7850,
      "Gallarate": 7851,
      "Hirth": 7852,
      "Higgins": 7853,
      "Howards": 7854,
      "Hoyer": 7855,
      "Ithaca": 7856,
      "Ishiba": 7857,
      "Jabiru": 7858,
      "Kyle": 7859,
      "Korogwe": 7860,
      "Kurtz": 7861,
      "Kelly": 7862,
      "Khiyoke": 7863,
      "Kwanza": 7864,
      "Livonian": 7865,
      "Langfield": 7866,
      "Lansdow": 7867,
      "Lothar": 7868,
      "México": 7869,
      "Moulay": 7870,
      "Mimmi": 7871,
      "Maple": 7872,
      "Okapi": 7873,
      "Ostapenko": 7874,
      "Oregon": 7875,
      "Ohio": 7876,
      "Puerto": 7877,
      "Pwani": 7878,
      "Pérez": 7879,
      "Pitts": 7880,
      "Powell": 7881,
      "Qadiri": 7882,
      "Quality": 7883,
      "Rég": 7884,
      "Range": 7885,
      "Route": 7886,
      "Rutledge": 7887,
      "Ruben": 7888,
      "Rift": 7889,
      "Revolution": 7890,
      "Reverend": 7891,
      "RULES": 7892,
      "Sörmland": 7893,
      "Sonu": 7894,
      "Somberlain": 7895,
      "Signals": 7896,
      "Sawchuk": 7897,
      "Succession": 7898,
      "Smuggl": 7899,
      "Sierra": 7900,
      "Skeletonwit": 7901,
      "Templepatrick": 7902,
      "Tipperary": 7903,
      "Taiwan": 7904,
      "Tennessee": 7905,
      "Tuesday": 7906,
      "Udit": 7907,
      "Uganda": 7908,
      "UoN": 7909,
      "UTAD": 7910,
      "Uhuru": 7911,
      "Usambara": 7912,
      "Vainius": 7913,
      "Vivienne": 7914,
      "Waits": 7915,
      "Waldron": 7916,
      "Yachting": 7917,
      "Zigula": 7918,
      "Zephyr": 7919,
      "aesthetic": 7920,
      "aederus": 7921,
      "beneath": 7922,
      "carcasses": 7923,
      "dollars": 7924,
      "drangea": 7925,
      "epoxy": 7926,
      "fitted": 7927,
      "fascin": 7928,
      "franchise": 7929,
      "fashion": 7930,
      "faculty": 7931,
      "huge": 7932,
      "hunting": 7933,
      "journey": 7934,
      "mounted": 7935,
      "masters": 7936,
      "mapping": 7937,
      "narrative": 7938,
      "ochreous": 7939,
      "puck": 7940,
      "phase": 7941,
      "paternal": 7942,
      "penned": 7943,
      "rishnan": 7944,
      "sweet": 7945,
      "tankers": 7946,
      "vampire": 7947,
      "indefinite": 7948,
      "inhabitants": 7949,
      "revised": 7950,
      "restricted": 7951,
      "recommend": 7952,
      "restitution": 7953,
      "refuge": 7954,
      "stimuli": 7955,
      "steward": 7956,
      "items": 7957,
      "thousands": 7958,
      "entrusted": 7959,
      "secede": 7960,
      "irredent": 7961,
      "beetle": 7962,
      "provincial": 7963,
      "concerts": 7964,
      "constitutions": 7965,
      "unanimously": 7966,
      "adapted": 7967,
      "immediately": 7968,
      "imagery": 7969,
      "subordinate": 7970,
      "Independent": 7971,
      "Intelligence": 7972,
      "emissions": 7973,
      "diffusion": 7974,
      "perfectly": 7975,
      "thermosetting": 7976,
      "quickly": 7977,
      "butchering": 7978,
      "Anselm": 7979,
      "Anheuser": 7980,
      "affected": 7981,
      "affiliates": 7982,
      "premise": 7983,
      "preliminary": 7984,
      "predecessors": 7985,
      "Armenia": 7986,
      "Aladdin": 7987,
      "Sparkes": 7988,
      "Spencer": 7989,
      "colloquially": 7990,
      "Encyclop": 7991,
      "Developers": 7992,
      "dissolved": 7993,
      "Collins": 7994,
      "centimetres": 7995,
      "biennial": 7996,
      "Affairs": 7997,
      "Committee": 7998,
      "capabilities": 7999,
      "Behemoth": 8000,
      "Eugénie": 8001,
      "Blasphemy": 8002,
      "Elizabeth": 8003,
      "equivalent": 8004,
      "Parantirrhoea": 8005,
      "Barbadian": 8006,
      "Kenyatta": 8007,
      "Metellina": 8008,
      "MATCH": 8009,
      "Pangbourne": 8010,
      "Abdellah": 8011,
      "Mohombi": 8012,
      "Stranraer": 8013,
      "catastrophic": 8014,
      "neighbouring": 8015,
      "photojournalism": 8016,
      "credentials": 8017,
      "Campiello": 8018,
      "circumvent": 8019,
      "tuberculosis": 8020,
      "Badalamenti": 8021,
      "Fédération": 8022,
      "González": 8023,
      "Lansdowne": 8024,
      "Smuggler": 8025,
      "Skeletonwitch": 8026,
      "!\".[": 8027,
      "\")": 8028,
      "\"-": 8029,
      "\"’": 8030,
      "\"),": 8031,
      "%)": 8032,
      "%,": 8033,
      "'),": 8034,
      "(\"": 8035,
      "(†": 8036,
      ")).": 8037,
      ")\",": 8038,
      "):[": 8039,
      ")\".": 8040,
      "*,": 8041,
      ",'": 8042,
      "./": 8043,
      ".”": 8044,
      ".),": 8045,
      "06": 8046,
      "09": 8047,
      "045": 8048,
      "037": 8049,
      "096": 8050,
      "052": 8051,
      "1st": 8052,
      "2O": 8053,
      "2v": 8054,
      "2200": 8055,
      "214": 8056,
      "2mm": 8057,
      "2nd": 8058,
      "3D": 8059,
      "3d": 8060,
      "3am": 8061,
      "30s": 8062,
      "3rd": 8063,
      "320x": 8064,
      "4I": 8065,
      "450": 8066,
      "432": 8067,
      "461": 8068,
      "53": 8069,
      "55": 8070,
      "550": 8071,
      "560": 8072,
      "67": 8073,
      "6am": 8074,
      "600": 8075,
      "630": 8076,
      "631": 8077,
      "639": 8078,
      "651": 8079,
      "72": 8080,
      "74": 8081,
      "76": 8082,
      "77": 8083,
      "78": 8084,
      "70s": 8085,
      "7ms": 8086,
      "725": 8087,
      "727": 8088,
      "768": 8089,
      "771": 8090,
      "82": 8091,
      "8x": 8092,
      "8th": 8093,
      "820": 8094,
      "811": 8095,
      "80s": 8096,
      "826": 8097,
      "839": 8098,
      "860": 8099,
      "871": 8100,
      "912": 8101,
      "957": 8102,
      "?-": 8103,
      "?][": 8104,
      "?\"[": 8105,
      "AA": 8106,
      "AB": 8107,
      "AK": 8108,
      "AQ": 8109,
      "AR": 8110,
      "AW": 8111,
      "Ah": 8112,
      "Ax": 8113,
      "Aé": 8114,
      "Aar": 8115,
      "Ato": 8116,
      "Aut": 8117,
      "Aber": 8118,
      "Aast": 8119,
      "Ald": 8120,
      "Aure": 8121,
      "Abr": 8122,
      "Asp": 8123,
      "Apol": 8124,
      "Aern": 8125,
      "A27": 8126,
      "ADR": 8127,
      "Astit": 8128,
      "Around": 8129,
      "Aires": 8130,
      "Apost": 8131,
      "ABC": 8132,
      "Avery": 8133,
      "Awards": 8134,
      "AFA": 8135,
      "AVID": 8136,
      "Area": 8137,
      "BA": 8138,
      "BM": 8139,
      "BS": 8140,
      "BZ": 8141,
      "Bre": 8142,
      "Bed": 8143,
      "Bit": 8144,
      "Bis": 8145,
      "Bes": 8146,
      "Bam": 8147,
      "Bir": 8148,
      "Big": 8149,
      "Bow": 8150,
      "Bak": 8151,
      "Bip": 8152,
      "Bast": 8153,
      "Bud": 8154,
      "Bant": 8155,
      "Bos": 8156,
      "Bau": 8157,
      "Bund": 8158,
      "Bie": 8159,
      "Been": 8160,
      "Bari": 8161,
      "Bird": 8162,
      "Barr": 8163,
      "Blet": 8164,
      "Bij": 8165,
      "Brew": 8166,
      "Bald": 8167,
      "Brist": 8168,
      "Boney": 8169,
      "Bwana": 8170,
      "Bull": 8171,
      "Body": 8172,
      "Balsa": 8173,
      "Bands": 8174,
      "Battles": 8175,
      "Baus": 8176,
      "Bishop": 8177,
      "Block": 8178,
      "CH": 8179,
      "CN": 8180,
      "CS": 8181,
      "CT": 8182,
      "CY": 8183,
      "Cr": 8184,
      "Cre": 8185,
      "Cat": 8186,
      "Cof": 8187,
      "Cou": 8188,
      "Cir": 8189,
      "Cow": 8190,
      "Cun": 8191,
      "Care": 8192,
      "Cem": 8193,
      "Clo": 8194,
      "Cop": 8195,
      "Cass": 8196,
      "Cry": 8197,
      "Crit": 8198,
      "Cance": 8199,
      "Cari": 8200,
      "Cult": 8201,
      "Clin": 8202,
      "Cob": 8203,
      "Clear": 8204,
      "Cram": 8205,
      "CES": 8206,
      "CMA": 8207,
      "CPG": 8208,
      "CCD": 8209,
      "Campaign": 8210,
      "Caser": 8211,
      "Caut": 8212,
      "Cert": 8213,
      "Cichl": 8214,
      "Cumb": 8215,
      "Cés": 8216,
      "C4I": 8217,
      "CBS": 8218,
      "DC": 8219,
      "DD": 8220,
      "DI": 8221,
      "DM": 8222,
      "DO": 8223,
      "DS": 8224,
      "DT": 8225,
      "DV": 8226,
      "Dor": 8227,
      "Dit": 8228,
      "Das": 8229,
      "Dol": 8230,
      "Dow": 8231,
      "Dun": 8232,
      "Dad": 8233,
      "Dim": 8234,
      "Dut": 8235,
      "Dul": 8236,
      "Dall": 8237,
      "Dear": 8238,
      "Dra": 8239,
      "Down": 8240,
      "Dif": 8241,
      "Dass": 8242,
      "Done": 8243,
      "Dev": 8244,
      "Dance": 8245,
      "Dail": 8246,
      "Dover": 8247,
      "Dave": 8248,
      "Draft": 8249,
      "Dmit": 8250,
      "Dick": 8251,
      "Dani": 8252,
      "Digital": 8253,
      "Drun": 8254,
      "Dris": 8255,
      "Danish": 8256,
      "Detro": 8257,
      "Dunda": 8258,
      "Digo": 8259,
      "Dumb": 8260,
      "Dynam": 8261,
      "Deru": 8262,
      "Dawn": 8263,
      "DAW": 8264,
      "E3": 8265,
      "EN": 8266,
      "ET": 8267,
      "Ek": 8268,
      "Ev": 8269,
      "Ew": 8270,
      "Ez": 8271,
      "Ein": 8272,
      "Eat": 8273,
      "Eas": 8274,
      "Eve": 8275,
      "Eus": 8276,
      "Ever": 8277,
      "Eri": 8278,
      "Edu": 8279,
      "Eust": 8280,
      "Ery": 8281,
      "Emer": 8282,
      "Eno": 8283,
      "Emi": 8284,
      "Eric": 8285,
      "Edis": 8286,
      "Esi": 8287,
      "Eck": 8288,
      "Estar": 8289,
      "Ess": 8290,
      "Esk": 8291,
      "Elect": 8292,
      "EFL": 8293,
      "Ebol": 8294,
      "Eken": 8295,
      "EPS": 8296,
      "Espin": 8297,
      "EDD": 8298,
      "FE": 8299,
      "FF": 8300,
      "FO": 8301,
      "Fan": 8302,
      "Fer": 8303,
      "Fat": 8304,
      "Fing": 8305,
      "Fro": 8306,
      "Fil": 8307,
      "Fol": 8308,
      "Fun": 8309,
      "Fus": 8310,
      "Fid": 8311,
      "Fel": 8312,
      "Fem": 8313,
      "Ful": 8314,
      "Fum": 8315,
      "Fies": 8316,
      "Fest": 8317,
      "Fry": 8318,
      "Faw": 8319,
      "Fang": 8320,
      "Free": 8321,
      "Follow": 8322,
      "Fles": 8323,
      "Fern": 8324,
      "Feral": 8325,
      "Ferg": 8326,
      "Fins": 8327,
      "Flet": 8328,
      "Fuel": 8329,
      "Fuk": 8330,
      "Ferná": 8331,
      "Fura": 8332,
      "Federal": 8333,
      "Fiction": 8334,
      "Feder": 8335,
      "Figures": 8336,
      "Falling": 8337,
      "Faun": 8338,
      "G7": 8339,
      "GI": 8340,
      "Gm": 8341,
      "Gó": 8342,
      "Gor": 8343,
      "Ged": 8344,
      "Gas": 8345,
      "Gil": 8346,
      "Gol": 8347,
      "Gow": 8348,
      "Gun": 8349,
      "Gab": 8350,
      "Gall": 8351,
      "Gip": 8352,
      "Gian": 8353,
      "Gone": 8354,
      "Gound": 8355,
      "Gav": 8356,
      "Gren": 8357,
      "Gates": 8358,
      "Grou": 8359,
      "Good": 8360,
      "Garc": 8361,
      "Ghal": 8362,
      "Ghen": 8363,
      "Goy": 8364,
      "Gord": 8365,
      "Gaul": 8366,
      "Glob": 8367,
      "Girl": 8368,
      "Graf": 8369,
      "GAA": 8370,
      "HE": 8371,
      "Ha": 8372,
      "Hi": 8373,
      "Hit": 8374,
      "Hom": 8375,
      "Hall": 8376,
      "Hear": 8377,
      "Hip": 8378,
      "Hore": 8379,
      "Hend": 8380,
      "Hop": 8381,
      "Hod": 8382,
      "Hass": 8383,
      "Hous": 8384,
      "Hans": 8385,
      "Hamp": 8386,
      "Hoff": 8387,
      "Hunt": 8388,
      "Hallow": 8389,
      "Hank": 8390,
      "Hind": 8391,
      "Hock": 8392,
      "Hier": 8393,
      "Happ": 8394,
      "Hills": 8395,
      "Hels": 8396,
      "Hedge": 8397,
      "Hidden": 8398,
      "Hutton": 8399,
      "H2O": 8400,
      "IV": 8401,
      "If": 8402,
      "Iñ": 8403,
      "Iter": 8404,
      "Iri": 8405,
      "Ill": 8406,
      "Ike": 8407,
      "ICA": 8408,
      "IMA": 8409,
      "Iken": 8410,
      "IEE": 8411,
      "ILS": 8412,
      "IBM": 8413,
      "JS": 8414,
      "Jon": 8415,
      "Jed": 8416,
      "Jas": 8417,
      "Jig": 8418,
      "Jew": 8419,
      "Jure": 8420,
      "Jason": 8421,
      "Jax": 8422,
      "Jør": 8423,
      "JESTA": 8424,
      "KN": 8425,
      "KP": 8426,
      "KT": 8427,
      "Ki": 8428,
      "Kō": 8429,
      "Kin": 8430,
      "Kis": 8431,
      "Kro": 8432,
      "Kent": 8433,
      "Kol": 8434,
      "Kun": 8435,
      "Kag": 8436,
      "Kew": 8437,
      "Kod": 8438,
      "Kau": 8439,
      "Kome": 8440,
      "Kild": 8441,
      "Khalf": 8442,
      "Kreat": 8443,
      "Kaim": 8444,
      "Kenny": 8445,
      "Kho": 8446,
      "Kirst": 8447,
      "Kyr": 8448,
      "Knight": 8449,
      "Kerr": 8450,
      "Koral": 8451,
      "Kallar": 8452,
      "Kids": 8453,
      "Krishnan": 8454,
      "LA": 8455,
      "LL": 8456,
      "LR": 8457,
      "Lo": 8458,
      "Ly": 8459,
      "Lat": 8460,
      "Lor": 8461,
      "Lit": 8462,
      "Lion": 8463,
      "Lam": 8464,
      "Lom": 8465,
      "Let": 8466,
      "Lab": 8467,
      "Llo": 8468,
      "Lear": 8469,
      "Lip": 8470,
      "Lau": 8471,
      "Lions": 8472,
      "Lep": 8473,
      "Lav": 8474,
      "Light": 8475,
      "Liam": 8476,
      "Lost": 8477,
      "Luci": 8478,
      "Lights": 8479,
      "Liver": 8480,
      "Larm": 8481,
      "L2000": 8482,
      "Love": 8483,
      "Lyn": 8484,
      "Letam": 8485,
      "Liter": 8486,
      "Lille": 8487,
      "Layer": 8488,
      "Leland": 8489,
      "Lighthouse": 8490,
      "Lathan": 8491,
      "MD": 8492,
      "ML": 8493,
      "MS": 8494,
      "MV": 8495,
      "Ml": 8496,
      "Mt": 8497,
      "Men": 8498,
      "Mst": 8499,
      "Mit": 8500,
      "Mas": 8501,
      "Mis": 8502,
      "Mic": 8503,
      "Mam": 8504,
      "Mbe": 8505,
      "Mid": 8506,
      "Mul": 8507,
      "Mall": 8508,
      "Mod": 8509,
      "Mong": 8510,
      "Mos": 8511,
      "Mund": 8512,
      "Muse": 8513,
      "Mold": 8514,
      "Mba": 8515,
      "Make": 8516,
      "Mari": 8517,
      "Mason": 8518,
      "Miam": 8519,
      "Mga": 8520,
      "Mob": 8521,
      "Maz": 8522,
      "Mats": 8523,
      "Move": 8524,
      "Mena": 8525,
      "MIN": 8526,
      "Motswana": 8527,
      "MNS": 8528,
      "Metal": 8529,
      "NL": 8530,
      "NR": 8531,
      "NU": 8532,
      "Nd": 8533,
      "Nk": 8534,
      "Nan": 8535,
      "Nand": 8536,
      "Nam": 8537,
      "Nac": 8538,
      "Nap": 8539,
      "Nel": 8540,
      "Nure": 8541,
      "None": 8542,
      "Nos": 8543,
      "Nav": 8544,
      "Night": 8545,
      "Nik": 8546,
      "Nail": 8547,
      "Nash": 8548,
      "Ngu": 8549,
      "Nuk": 8550,
      "NMA": 8551,
      "Nites": 8552,
      "NFL": 8553,
      "Ninth": 8554,
      "Named": 8555,
      "Niel": 8556,
      "Nancy": 8557,
      "Numb": 8558,
      "Nairo": 8559,
      "NER": 8560,
      "Ninj": 8561,
      "Nurse": 8562,
      "Nadu": 8563,
      "Nathan": 8564,
      "NET": 8565,
      "NIBM": 8566,
      "OO": 8567,
      "OP": 8568,
      "OR": 8569,
      "Oil": 8570,
      "Our": 8571,
      "Oct": 8572,
      "Out": 8573,
      "Oci": 8574,
      "Oak": 8575,
      "Oud": 8576,
      "Offic": 8577,
      "Okin": 8578,
      "Oini": 8579,
      "Obras": 8580,
      "ODS": 8581,
      "ONER": 8582,
      "PB": 8583,
      "PM": 8584,
      "PT": 8585,
      "PV": 8586,
      "Py": 8587,
      "Pó": 8588,
      "Pin": 8589,
      "Pon": 8590,
      "Ped": 8591,
      "Pun": 8592,
      "Pid": 8593,
      "Pab": 8594,
      "Pian": 8595,
      "Pass": 8596,
      "Pher": 8597,
      "Pits": 8598,
      "Pos": 8599,
      "Psy": 8600,
      "Ploc": 8601,
      "Pret": 8602,
      "Pari": 8603,
      "Pool": 8604,
      "Peng": 8605,
      "Phal": 8606,
      "Puc": 8607,
      "Pied": 8608,
      "Prote": 8609,
      "Paz": 8610,
      "Pons": 8611,
      "Pier": 8612,
      "PFA": 8613,
      "Pictures": 8614,
      "Qi": 8615,
      "RC": 8616,
      "RS": 8617,
      "RY": 8618,
      "Ric": 8619,
      "Rent": 8620,
      "Rac": 8621,
      "Row": 8622,
      "Ray": 8623,
      "Rag": 8624,
      "Rot": 8625,
      "Rain": 8626,
      "Rul": 8627,
      "Rate": 8628,
      "Riv": 8629,
      "Rest": 8630,
      "Raf": 8631,
      "Rik": 8632,
      "Rah": 8633,
      "Rys": 8634,
      "Rick": 8635,
      "Rash": 8636,
      "Raz": 8637,
      "Rural": 8638,
      "Races": 8639,
      "Reven": 8640,
      "Rug": 8641,
      "Rites": 8642,
      "Racing": 8643,
      "Ranga": 8644,
      "Riy": 8645,
      "Rocco": 8646,
      "Río": 8647,
      "Rushes": 8648,
      "Rangers": 8649,
      "REDD": 8650,
      "SE": 8651,
      "SO": 8652,
      "Sf": 8653,
      "Si": 8654,
      "Sk": 8655,
      "Sn": 8656,
      "Sé": 8657,
      "Sof": 8658,
      "Sit": 8659,
      "Sle": 8660,
      "Sent": 8661,
      "Sol": 8662,
      "Sid": 8663,
      "Sap": 8664,
      "Sist": 8665,
      "Smo": 8666,
      "Squ": 8667,
      "SCNN": 8668,
      "Sust": 8669,
      "Sew": 8670,
      "Sest": 8671,
      "Sud": 8672,
      "Spr": 8673,
      "Sincl": 8674,
      "Sav": 8675,
      "Sens": 8676,
      "Sight": 8677,
      "Site": 8678,
      "Sund": 8679,
      "Swe": 8680,
      "Sold": 8681,
      "Sital": 8682,
      "Sarc": 8683,
      "Sali": 8684,
      "Said": 8685,
      "Size": 8686,
      "Scient": 8687,
      "Skill": 8688,
      "Suk": 8689,
      "Samba": 8690,
      "Sado": 8691,
      "SCD": 8692,
      "Sedition": 8693,
      "Sax": 8694,
      "Sull": 8695,
      "Sailing": 8696,
      "Sanda": 8697,
      "Solutions": 8698,
      "Sayer": 8699,
      "SIG": 8700,
      "Sutton": 8701,
      "Spering": 8702,
      "Sodom": 8703,
      "Santa": 8704,
      "Siege": 8705,
      "Tu": 8706,
      "Tō": 8707,
      "Ton": 8708,
      "Tre": 8709,
      "Tor": 8710,
      "Ted": 8711,
      "Tow": 8712,
      "Tim": 8713,
      "Tot": 8714,
      "Tut": 8715,
      "Tate": 8716,
      "Tog": 8717,
      "Ties": 8718,
      "Tew": 8719,
      "Tack": 8720,
      "Tren": 8721,
      "Tok": 8722,
      "Twe": 8723,
      "Tik": 8724,
      "Tae": 8725,
      "Teen": 8726,
      "Thi": 8727,
      "Tool": 8728,
      "Trece": 8729,
      "Taj": 8730,
      "Thist": 8731,
      "Tarr": 8732,
      "Trail": 8733,
      "Twin": 8734,
      "Times": 8735,
      "Tuk": 8736,
      "Tampa": 8737,
      "Tape": 8738,
      "Trip": 8739,
      "Tallar": 8740,
      "Toul": 8741,
      "TEC": 8742,
      "Ua": 8743,
      "Usu": 8744,
      "Ueda": 8745,
      "UAFA": 8746,
      "VV": 8747,
      "Ví": 8748,
      "Van": 8749,
      "Vor": 8750,
      "Vul": 8751,
      "Vers": 8752,
      "Vive": 8753,
      "Voc": 8754,
      "Vide": 8755,
      "Vise": 8756,
      "VII": 8757,
      "Vij": 8758,
      "Vene": 8759,
      "Viver": 8760,
      "Vaugh": 8761,
      "Vug": 8762,
      "Very": 8763,
      "VIII": 8764,
      "Vert": 8765,
      "Vida": 8766,
      "Vinterland": 8767,
      "VER": 8768,
      "VLS": 8769,
      "VPS": 8770,
      "Wl": 8771,
      "Wy": 8772,
      "Wü": 8773,
      "Wat": 8774,
      "Wed": 8775,
      "Wit": 8776,
      "Wes": 8777,
      "Wil": 8778,
      "Wol": 8779,
      "Wex": 8780,
      "Wass": 8781,
      "Want": 8782,
      "Wach": 8783,
      "Winter": 8784,
      "Wide": 8785,
      "Wave": 8786,
      "Watt": 8787,
      "Waz": 8788,
      "Where": 8789,
      "Wyn": 8790,
      "Wolf": 8791,
      "Waves": 8792,
      "WRM": 8793,
      "Wading": 8794,
      "WDM": 8795,
      "Xi": 8796,
      "Xu": 8797,
      "XOR": 8798,
      "Ye": 8799,
      "Yan": 8800,
      "Yow": 8801,
      "Yut": 8802,
      "Yann": 8803,
      "Young": 8804,
      "Za": 8805,
      "Zo": 8806,
      "Zy": 8807,
      "Zar": 8808,
      "Zab": 8809,
      "Zhal": 8810,
      "Zhab": 8811,
      "Zapp": 8812,
      "]),": 8813,
      "aë": 8814,
      "añ": 8815,
      "aú": 8816,
      "athe": 8817,
      "ais": 8818,
      "aust": 8819,
      "aiz": 8820,
      "ajo": 8821,
      "aaja": 8822,
      "abel": 8823,
      "aviation": 8824,
      "bH": 8825,
      "bb": 8826,
      "bá": 8827,
      "bó": 8828,
      "bö": 8829,
      "bø": 8830,
      "bat": 8831,
      "bom": 8832,
      "bow": 8833,
      "bun": 8834,
      "bap": 8835,
      "bart": 8836,
      "bard": 8837,
      "bors": 8838,
      "bach": 8839,
      "bang": 8840,
      "bli": 8841,
      "bath": 8842,
      "bold": 8843,
      "bik": 8844,
      "bari": 8845,
      "bann": 8846,
      "badi": 8847,
      "bared": 8848,
      "bind": 8849,
      "bats": 8850,
      "bury": 8851,
      "bishop": 8852,
      "block": 8853,
      "cf": 8854,
      "cm": 8855,
      "cen": 8856,
      "cle": 8857,
      "cac": 8858,
      "cun": 8859,
      "cid": 8860,
      "cist": 8861,
      "cul": 8862,
      "cill": 8863,
      "cers": 8864,
      "cry": 8865,
      "cup": 8866,
      "cence": 8867,
      "cos": 8868,
      "cater": 8869,
      "cused": 8870,
      "cable": 8871,
      "camp": 8872,
      "cited": 8873,
      "cale": 8874,
      "ccer": 8875,
      "chen": 8876,
      "cities": 8877,
      "cats": 8878,
      "cision": 8879,
      "cina": 8880,
      "cTV": 8881,
      "cru": 8882,
      "cleav": 8883,
      "cards": 8884,
      "cimens": 8885,
      "cidae": 8886,
      "caves": 8887,
      "caught": 8888,
      "cosa": 8889,
      "cán": 8890,
      "craf": 8891,
      "cGI": 8892,
      "da": 8893,
      "dat": 8894,
      "dum": 8895,
      "dall": 8896,
      "dors": 8897,
      "dated": 8898,
      "dish": 8899,
      "dman": 8900,
      "dos": 8901,
      "dates": 8902,
      "dance": 8903,
      "dating": 8904,
      "dah": 8905,
      "dral": 8906,
      "dhist": 8907,
      "dash": 8908,
      "dwood": 8909,
      "drain": 8910,
      "dators": 8911,
      "drench": 8912,
      "dney": 8913,
      "dense": 8914,
      "dden": 8915,
      "dhik": 8916,
      "danger": 8917,
      "density": 8918,
      "eu": 8919,
      "ean": 8920,
      "eer": 8921,
      "eing": 8922,
      "ect": 8923,
      "ether": 8924,
      "eia": 8925,
      "eating": 8926,
      "eche": 8927,
      "efully": 8928,
      "effic": 8929,
      "etery": 8930,
      "efficient": 8931,
      "ecious": 8932,
      "eguard": 8933,
      "e2v": 8934,
      "fth": 8935,
      "fac": 8936,
      "fall": 8937,
      "fog": 8938,
      "fak": 8939,
      "figh": 8940,
      "fra": 8941,
      "fry": 8942,
      "fence": 8943,
      "fant": 8944,
      "fiz": 8945,
      "fans": 8946,
      "fable": 8947,
      "fuse": 8948,
      "fold": 8949,
      "fically": 8950,
      "fired": 8951,
      "fict": 8952,
      "fights": 8953,
      "fountain": 8954,
      "fying": 8955,
      "fuses": 8956,
      "fago": 8957,
      "fares": 8958,
      "faced": 8959,
      "facts": 8960,
      "fading": 8961,
      "falling": 8962,
      "ffrag": 8963,
      "fond": 8964,
      "finger": 8965,
      "fications": 8966,
      "fawn": 8967,
      "gn": 8968,
      "gs": 8969,
      "gic": 8970,
      "gig": 8971,
      "gay": 8972,
      "gap": 8973,
      "gri": 8974,
      "gated": 8975,
      "gha": 8976,
      "gore": 8977,
      "gif": 8978,
      "gry": 8979,
      "gence": 8980,
      "gang": 8981,
      "gau": 8982,
      "gens": 8983,
      "ggen": 8984,
      "gory": 8985,
      "gie": 8986,
      "gled": 8987,
      "glos": 8988,
      "gird": 8989,
      "gement": 8990,
      "gets": 8991,
      "giving": 8992,
      "gives": 8993,
      "gyz": 8994,
      "golf": 8995,
      "gisl": 8996,
      "gosa": 8997,
      "gkinson": 8998,
      "hr": 8999,
      "hat": 9000,
      "hing": 9001,
      "hot": 9002,
      "hall": 9003,
      "hub": 9004,
      "hated": 9005,
      "hage": 9006,
      "holog": 9007,
      "hang": 9008,
      "hire": 9009,
      "hok": 9010,
      "hbec": 9011,
      "hms": 9012,
      "hwood": 9013,
      "hana": 9014,
      "hamele": 9015,
      "hidden": 9016,
      "haka": 9017,
      "ib": 9018,
      "iq": 9019,
      "ihe": 9020,
      "iard": 9021,
      "iod": 9022,
      "ience": 9023,
      "ibus": 9024,
      "ibu": 9025,
      "iety": 9026,
      "ibly": 9027,
      "iaceae": 9028,
      "iHollywood": 9029,
      "ián": 9030,
      "ihito": 9031,
      "jer": 9032,
      "jand": 9033,
      "jas": 9034,
      "jing": 9035,
      "jac": 9036,
      "jong": 9037,
      "jail": 9038,
      "jaz": 9039,
      "jug": 9040,
      "jihad": 9041,
      "kö": 9042,
      "kit": 9043,
      "kes": 9044,
      "kro": 9045,
      "kur": 9046,
      "kow": 9047,
      "kus": 9048,
      "ket": 9049,
      "kne": 9050,
      "kers": 9051,
      "kland": 9052,
      "kans": 9053,
      "ktop": 9054,
      "kets": 9055,
      "kmen": 9056,
      "kuk": 9057,
      "kyn": 9058,
      "kirk": 9059,
      "kshire": 9060,
      "kistan": 9061,
      "klon": 9062,
      "khaz": 9063,
      "las": 9064,
      "lac": 9065,
      "lus": 9066,
      "lum": 9067,
      "lian": 9068,
      "lend": 9069,
      "lage": 9070,
      "lach": 9071,
      "lates": 9072,
      "lbor": 9073,
      "latt": 9074,
      "lfo": 9075,
      "luc": 9076,
      "ladd": 9077,
      "lord": 9078,
      "lights": 9079,
      "lene": 9080,
      "lending": 9081,
      "lakes": 9082,
      "lago": 9083,
      "llect": 9084,
      "laser": 9085,
      "lighthouse": 9086,
      "m2": 9087,
      "må": 9088,
      "mou": 9089,
      "mac": 9090,
      "mom": 9091,
      "mun": 9092,
      "mart": 9093,
      "mul": 9094,
      "mak": 9095,
      "mere": 9096,
      "mated": 9097,
      "mour": 9098,
      "mous": 9099,
      "mau": 9100,
      "mmet": 9101,
      "mates": 9102,
      "might": 9103,
      "mold": 9104,
      "mired": 9105,
      "marri": 9106,
      "mstrong": 9107,
      "mighty": 9108,
      "mbarri": 9109,
      "mpting": 9110,
      "nn": 9111,
      "nw": 9112,
      "nar": 9113,
      "nit": 9114,
      "nion": 9115,
      "nde": 9116,
      "nus": 9117,
      "ness": 9118,
      "nem": 9119,
      "ners": 9120,
      "nast": 9121,
      "nud": 9122,
      "nish": 9123,
      "none": 9124,
      "nos": 9125,
      "npr": 9126,
      "nance": 9127,
      "nell": 9128,
      "nings": 9129,
      "nail": 9130,
      "nude": 9131,
      "nuc": 9132,
      "ngel": 9133,
      "nments": 9134,
      "nator": 9135,
      "n40": 9136,
      "nesses": 9137,
      "nstein": 9138,
      "nurse": 9139,
      "naked": 9140,
      "oz": 9141,
      "oë": 9142,
      "othe": 9143,
      "ois": 9144,
      "oam": 9145,
      "obe": 9146,
      "oct": 9147,
      "oak": 9148,
      "oqu": 9149,
      "oco": 9150,
      "oens": 9151,
      "oath": 9152,
      "oice": 9153,
      "obi": 9154,
      "oah": 9155,
      "oys": 9156,
      "ocell": 9157,
      "ostructures": 9158,
      "oDa": 9159,
      "oshi": 9160,
      "orescent": 9161,
      "oMax": 9162,
      "pin": 9163,
      "pes": 9164,
      "ping": 9165,
      "pig": 9166,
      "pare": 9167,
      "pul": 9168,
      "pill": 9169,
      "pated": 9170,
      "pend": 9171,
      "pour": 9172,
      "pals": 9173,
      "pically": 9174,
      "pari": 9175,
      "pana": 9176,
      "pansion": 9177,
      "petro": 9178,
      "pull": 9179,
      "paying": 9180,
      "praised": 9181,
      "pictor": 9182,
      "poured": 9183,
      "purely": 9184,
      "pension": 9185,
      "pictures": 9186,
      "pixel": 9187,
      "pathe": 9188,
      "rz": 9189,
      "rin": 9190,
      "rat": 9191,
      "rar": 9192,
      "rac": 9193,
      "ray": 9194,
      "rag": 9195,
      "rap": 9196,
      "rors": 9197,
      "rine": 9198,
      "rud": 9199,
      "rong": 9200,
      "rice": 9201,
      "ramp": 9202,
      "rames": 9203,
      "race": 9204,
      "rale": 9205,
      "rise": 9206,
      "radi": 9207,
      "rona": 9208,
      "rural": 9209,
      "rators": 9210,
      "ratory": 9211,
      "rden": 9212,
      "rink": 9213,
      "rayan": 9214,
      "rushes": 9215,
      "rhage": 9216,
      "rkö": 9217,
      "sq": 9218,
      "san": 9219,
      "sit": 9220,
      "ses": 9221,
      "sou": 9222,
      "sad": 9223,
      "say": 9224,
      "sby": 9225,
      "sut": 9226,
      "sab": 9227,
      "spo": 9228,
      "sive": 9229,
      "sous": 9230,
      "saf": 9231,
      "spr": 9232,
      "slow": 9233,
      "scol": 9234,
      "sake": 9235,
      "sled": 9236,
      "sale": 9237,
      "snow": 9238,
      "ssing": 9239,
      "sque": 9240,
      "sending": 9241,
      "sought": 9242,
      "sends": 9243,
      "sample": 9244,
      "sites": 9245,
      "sax": 9246,
      "sessed": 9247,
      "sabil": 9248,
      "sciences": 9249,
      "soul": 9250,
      "sizable": 9251,
      "siege": 9252,
      "ti": 9253,
      "tan": 9254,
      "tat": 9255,
      "tor": 9256,
      "tis": 9257,
      "tes": 9258,
      "tag": 9259,
      "tts": 9260,
      "tall": 9261,
      "tact": 9262,
      "tics": 9263,
      "tically": 9264,
      "tles": 9265,
      "tset": 9266,
      "tism": 9267,
      "tending": 9268,
      "tread": 9269,
      "tford": 9270,
      "tales": 9271,
      "tends": 9272,
      "tax": 9273,
      "tihad": 9274,
      "tsey": 9275,
      "turban": 9276,
      "tensions": 9277,
      "tipping": 9278,
      "tkus": 9279,
      "tlene": 9280,
      "ui": 9281,
      "uo": 9282,
      "uto": 9283,
      "uth": 9284,
      "uation": 9285,
      "urom": 9286,
      "uine": 9287,
      "uest": 9288,
      "uco": 9289,
      "ucent": 9290,
      "uters": 9291,
      "uins": 9292,
      "uator": 9293,
      "uata": 9294,
      "uching": 9295,
      "ugins": 9296,
      "uchi": 9297,
      "uhito": 9298,
      "va": 9299,
      "vs": 9300,
      "vand": 9301,
      "vas": 9302,
      "vul": 9303,
      "vies": 9304,
      "vary": 9305,
      "vich": 9306,
      "vian": 9307,
      "vals": 9308,
      "vice": 9309,
      "vae": 9310,
      "vings": 9311,
      "voy": 9312,
      "vator": 9313,
      "vying": 9314,
      "viny": 9315,
      "varian": 9316,
      "vacy": 9317,
      "variant": 9318,
      "voted": 9319,
      "voked": 9320,
      "wü": 9321,
      "wid": 9322,
      "wel": 9323,
      "wast": 9324,
      "wage": 9325,
      "wau": 9326,
      "wound": 9327,
      "winter": 9328,
      "warri": 9329,
      "wai": 9330,
      "wind": 9331,
      "wins": 9332,
      "wages": 9333,
      "wolf": 9334,
      "wides": 9335,
      "wishes": 9336,
      "xer": 9337,
      "xation": 9338,
      "xts": 9339,
      "xide": 9340,
      "x500": 9341,
      "xagon": 9342,
      "x48": 9343,
      "x128": 9344,
      "xiety": 9345,
      "yd": 9346,
      "yre": 9347,
      "yde": 9348,
      "yce": 9349,
      "yers": 9350,
      "yip": 9351,
      "yout": 9352,
      "yue": 9353,
      "yph": 9354,
      "yank": 9355,
      "yves": 9356,
      "yla": 9357,
      "yuk": 9358,
      "yright": 9359,
      "ypic": 9360,
      "yond": 9361,
      "ymour": 9362,
      "yoz": 9363,
      "ytics": 9364,
      "zi": 9365,
      "zar": 9366,
      "zes": 9367,
      "zle": 9368,
      "zent": 9369,
      "zab": 9370,
      "zmon": 9371,
      "zile": 9372,
      "zgan": 9373,
      "zie": 9374,
      "zione": 9375,
      "³),[": 9376,
      "»)": 9377,
      "Ángel": 9378,
      "Éto": 9379,
      "Økland": 9380,
      "ße": 9381,
      "ámbarri": 9382,
      "åle": 9383,
      "çade": 9384,
      "çais": 9385,
      "ère": 9386,
      "édie": 9387,
      "être": 9388,
      "íne": 9389,
      "íno": 9390,
      "írez": 9391,
      "ño": 9392,
      "ñar": 9393,
      "ófago": 9394,
      "önw": 9395,
      "úin": 9396,
      "ühbec": 9397,
      "ümou": 9398,
      "āta": 9399,
      "īs": 9400,
      "Жа": 9401,
      "Ма": 9402,
      "Мі": 9403,
      "Од": 9404,
      "ае": 9405,
      "ам": 9406,
      "ағ": 9407,
      "аро": 9408,
      "бе": 9409,
      "дн": 9410,
      "ес": 9411,
      "жн": 9412,
      "ий": 9413,
      "им": 9414,
      "кс": 9415,
      "лм": 9416,
      "ов": 9417,
      "ор": 9418,
      "пор": 9419,
      "тов": 9420,
      "أب": 9421,
      "أس": 9422,
      "أن": 9423,
      "ات": 9424,
      "اد": 9425,
      "ار": 9426,
      "از": 9427,
      "اس": 9428,
      "اض": 9429,
      "اق": 9430,
      "حم": 9431,
      "دي": 9432,
      "دی": 9433,
      "ري": 9434,
      "سي": 9435,
      "ساد": 9436,
      "طال": 9437,
      "فاق": 9438,
      "كل": 9439,
      "كأس": 9440,
[...]
